<unk>	0
<s>	0
</s>	0
▁a	-3.65248
s	-3.80676
▁que	-3.84919
▁de	-3.96185
?	-4.06673
▁não	-4.32188
▁o	-4.33634
▁é	-4.41282
,	-4.58464
▁e	-4.6578
▁para	-4.78945
▁	-4.82431
▁E	-4.9163
▁Não	-4.95911
▁Mas	-5.01797
▁Eu	-5.1086
▁com	-5.25415
▁A	-5.25908
▁me	-5.26675
.	-5.26713
▁um	-5.27134
-	-5.28284
▁do	-5.33046
▁vou	-5.38867
▁eu	-5.39749
▁uma	-5.4031
▁bué	-5.4635
h	-5.50409
▁mais	-5.52065
▁I	-5.52215
▁bem	-5.52641
▁da	-5.54121
▁no	-5.54898
&#039;	-5.55557
▁à	-5.55723
▁Vou	-5.56557
▁se	-5.57451
m	-5.57916
▁já	-5.58113
▁É	-5.58982
▁O	-5.63307
▁em	-5.71181
▁por	-5.7137
o	-5.7359
r	-5.74929
▁Já	-5.77376
▁isso	-5.77787
▁ser	-5.78172
▁fazer	-5.80287
▁ver	-5.80668
▁te	-5.81279
▁na	-5.82111
▁também	-5.82762
▁agora	-5.84281
▁está	-5.84581
▁estou	-5.85461
▁muito	-5.90451
▁mesmo	-5.91316
▁sei	-5.92798
▁tenho	-5.9417
a	-5.94859
▁mas	-5.95473
▁só	-5.96282
/	-5.99204
▁ao	-6.00841
▁Estou	-6.03621
▁ir	-6.05548
▁casa	-6.05627
▁ter	-6.07555
▁dormir	-6.08539
▁as	-6.09269
u	-6.1163
;	-6.14269
▁Se	-6.17655
▁porque	-6.17695
▁minha	-6.18335
▁Sim	-6.19083
▁os	-6.22247
▁depois	-6.22895
️	-6.23216
▁*	-6.24271
▁Está	-6.28826
!	-6.29387
t	-6.29715
me	-6.30833
▁quando	-6.3211
▁dia	-6.34317
▁vai	-6.35694
▁amanhã	-6.36193
▁foi	-6.37428
te	-6.39438
▁Ainda	-6.39687
quot	-6.42366
▁ti	-6.42869
▁❤	-6.43449
▁Porque	-6.44507
▁you	-6.45218
▁meu	-6.45501
▁estar	-6.45589
i	-6.47004
▁estava	-6.47551
▁ainda	-6.48861
▁Então	-6.49841
▁assim	-6.52407
▁fixe	-6.52529
mos	-6.53546
es	-6.54671
▁era	-6.54919
▁nada	-6.55201
▁tua	-6.55419
▁ele	-6.56523
▁tempo	-6.57278
▁lá	-6.61619
▁Ya	-6.62164
▁ou	-6.62311
▁como	-6.624
▁vez	-6.62572
▁dizer	-6.62907
▁sim	-6.63755
▁Também	-6.66634
▁hoje	-6.67302
▁tens	-6.67768
▁há	-6.70185
▁tu	-6.71323
▁Okay	-6.74446
▁bom	-6.74812
▁até	-6.75682
e	-6.76116
&	-6.76415
▁Só	-6.79194
▁boa	-6.79656
Até	-6.80182
▁gosto	-6.80872
▁ficar	-6.81741
▁Que	-6.81889
▁tem	-6.82135
y	-6.83207
://	-6.84218
▁disse	-6.84257
▁Isso	-6.85028
d	-6.85232
▁então	-6.85431
▁Tenho	-6.85815
_	-6.86489
▁vídeo	-6.86643
▁http	-6.86858
▁Quando	-6.87646
▁Vai	-6.88326
▁melhor	-6.8852
▁quero	-6.89011
▁bocado	-6.89309
▁falar	-6.89884
▁mim	-6.90953
▁ela	-6.91128
▁sempre	-6.91406
ei	-6.91468
▁tinha	-6.91846
▁Depois	-6.92047
▁contigo	-6.92908
ste	-6.9297
▁Ele	-6.94614
▁Como	-6.94964
l	-6.95283
▁Por	-6.95743
▁Para	-6.95998
ou	-6.96238
▁2	-6.97825
▁Agora	-6.98694
▁estás	-6.99642
▁foto	-6.99959
▁coisas	-7.0087
tão	-7.00959
do	-7.01038
▁Mesmo	-7.01252
▁Ok	-7.01379
com	-7.0202
▁estudar	-7.02694
▁&	-7.03723
v	-7.03975
▁Pois	-7.04593
▁são	-7.05623
▁Acho	-7.05815
▁No	-7.06907
▁it	-7.08346
n	-7.08879
=	-7.09244
▁vais	-7.09339
f	-7.10141
▁menos	-7.10709
▁noite	-7.10891
▁jantar	-7.11127
▁banho	-7.11379
▁Foi	-7.12174
▁coisa	-7.12586
▁1	-7.13244
▁isto	-7.14046
)	-7.14443
▁aí	-7.14611
da	-7.15253
▁conversa	-7.15287
▁acho	-7.16736
▁tudo	-7.17156
▁👅	-7.17548
▁teu	-7.17849
www	-7.17887
▁mal	-7.18098
▁so	-7.18647
▁vezes	-7.19197
▁Tens	-7.20929
▁nice	-7.21865
re	-7.2342
▁Tu	-7.23927
▁You	-7.24607
p	-7.2472
c	-7.24983
▁Damn	-7.2531
▁nem	-7.25327
▁Ah	-7.2572
▁chegar	-7.26103
▁Mariana	-7.27141
▁horas	-7.2771
▁aqui	-7.28204
▁tomar	-7.28377
▁for	-7.29884
30	-7.31707
▁sem	-7.31804
▁3	-7.33756
▁outra	-7.33801
▁posso	-7.34057
▁Ou	-7.34998
▁baby	-7.35057
▁Era	-7.35886
▁sou	-7.35963
se	-7.36881
▁It	-7.3719
b	-7.37378
▁Bué	-7.39085
(	-7.39612
▁tentar	-7.39811
▁Ela	-7.39853
▁vi	-7.40215
▁to	-7.40757
▁Gosto	-7.41153
▁Estava	-7.41386
x	-7.42398
▁esta	-7.42509
▁mãe	-7.42915
▁the	-7.43197
▁though	-7.44891
▁nos	-7.45824
▁cena	-7.46554
▁diz	-7.46698
▁logo	-7.47303
▁Amanhã	-7.48416
g	-7.48694
▁dá	-7.49178
▁Boa	-7.49185
▁comprar	-7.4931
▁dar	-7.50282
▁ia	-7.50448
▁quase	-7.51481
▁that	-7.51482
▁Afonso	-7.51862
▁pensar	-7.52172
▁̄	-7.53037
▁comigo	-7.53044
▁(	-7.53124
▁ano	-7.53221
▁comer	-7.5364
▁Gonçalo	-7.54192
▁dos	-7.5472
▁gira	-7.54795
▁De	-7.55311
▁espera	-7.55648
▁Maria	-7.55831
▁pessoas	-7.5638
em	-7.57668
▁eles	-7.57852
▁tarde	-7.57886
▁okay	-7.57895
ing	-7.58463
▁i	-7.5881
▁aula	-7.59023
▁10	-7.59364
▁Vais	-7.59427
▁tipo	-7.59588
▁quiseres	-7.59994
▁Estás	-7.60131
w	-7.60318
▁passar	-7.60392
1	-7.60707
▁mau	-7.60828
▁termin	-7.60854
▁todos	-7.60884
▁Olá	-7.61271
▁Hoje	-7.62115
▁mandar	-7.62294
▁That	-7.62551
ar	-7.62649
▁vamos	-7.62713
ão	-7.63176
▁Na	-7.64069
▁jogo	-7.64247
ll	-7.64251
am	-7.6452
▁sair	-7.64881
▁min	-7.65588
▁hora	-7.65684
▁mata	-7.65776
z	-7.6586
▁cedo	-7.66085
▁almoçar	-7.66984
▁Espero	-7.67438
Nem	-7.67841
:	-7.67859
▁cá	-7.67906
▁saber	-7.67929
▁acabar	-7.68414
▁Esta	-7.68739
▁Dorme	-7.68817
▁fotos	-7.69053
▁sério	-7.69277
▁Bom	-7.69305
▁Bem	-7.69855
▁manhã	-7.70209
▁antes	-7.70228
amp	-7.70326
▁faz	-7.70403
▁Claro	-7.70679
▁teste	-7.71011
▁5	-7.71606
▁daqui	-7.71639
▁be	-7.71707
▁in	-7.72508
▁seria	-7.72586
mente	-7.72737
A	-7.73513
▁dias	-7.73709
▁semana	-7.7374
▁quê	-7.74029
▁podes	-7.754
▁know	-7.75505
▁estranho	-7.75704
▁onde	-7.76026
2	-7.7618
▁f	-7.76571
▁parte	-7.76775
▁8	-7.77176
▁cama	-7.77474
▁alguma	-7.77895
▁nunca	-7.78507
▁acordar	-7.78573
▁grande	-7.7882
▁Yes	-7.78903
▁bocadinho	-7.79017
0	-7.79298
6	-7.79308
▁ontem	-7.79532
▁outro	-7.79921
va	-7.80064
▁giro	-7.80375
▁este	-7.80389
▁Em	-7.81135
O	-7.81416
▁primeira	-7.81953
▁Wow	-7.82134
▁Oh	-7.82456
▁pelo	-7.8257
▁un	-7.82661
▁consigo	-7.82664
▁segunda	-7.83202
4	-7.83475
▁essa	-7.83653
▁meus	-7.84112
▁P	-7.84136
▁is	-7.84255
▁estão	-7.84324
ia	-7.84615
▁9	-7.84689
▁Muito	-7.84738
▁Not	-7.85159
▁Há	-7.85358
▁True	-7.85401
▁T	-7.85858
▁fui	-7.85913
▁sorry	-7.86255
de	-7.86608
▁aulas	-7.86647
▁Queres	-7.87093
▁deve	-7.87727
7	-7.87809
youtube	-7.87822
8	-7.87992
3	-7.88034
▁♥	-7.88117
▁Um	-7.885
▁Parece	-7.88676
▁Rip	-7.88683
▁calhar	-7.88686
k	-7.89208
▁queria	-7.89235
▁técnico	-7.89243
▁pronto	-7.89249
watch	-7.89526
▁almoço	-7.89821
▁cima	-7.89861
▁causa	-7.9038
▁cenas	-7.90942
▁queres	-7.91965
▁vir	-7.92016
▁usar	-7.92166
▁pode	-7.92479
▁temos	-7.9344
!!	-7.93514
▁pela	-7.94504
▁ya	-7.95032
▁mesma	-7.95084
as	-7.95266
▁4	-7.95482
▁7	-7.95504
▁S	-7.9591
ndo	-7.96092
▁tive	-7.96093
▁Same	-7.96313
▁São	-7.96331
▁levar	-7.96361
▁primeiro	-7.96409
er	-7.96409
▁Quero	-7.9648
5	-7.96867
▁What	-7.96891
S	-7.96944
▁piada	-7.97091
9	-7.97239
▁parece	-7.9729
U	-7.97831
▁comboio	-7.98322
▁ouvir	-7.98375
▁not	-7.98497
▁go	-7.98659
▁autocarro	-7.98835
▁C	-7.9956
▁tanto	-7.99587
▁Why	-7.99717
▁fine	-8.00083
final	-8.00369
M	-8.00473
▁forma	-8.00566
I	-8.0076
B	-8.01733
▁verdade	-8.01899
▁Acabei	-8.01908
▁sobre	-8.01908
▁20	-8.02351
▁Yeah	-8.02552
▁faço	-8.02555
▁tirar	-8.02622
ed	-8.02965
▁As	-8.03273
▁Pode	-8.03305
ra	-8.03622
▁sad	-8.03863
▁re	-8.04043
▁pouco	-8.04167
▁dois	-8.04205
▁ahahah	-8.04287
▁gostar	-8.04354
▁imenso	-8.04515
▁good	-8.04534
▁Nope	-8.04539
▁t	-8.0462
▁pessoa	-8.04877
D	-8.05094
j	-8.05526
▁num	-8.06153
▁ideia	-8.06257
▁és	-8.06399
▁pais	-8.06517
▁fica	-8.06638
▁Manda	-8.07131
▁cute	-8.07172
▁seja	-8.077
▁irmão	-8.07849
▁Thank	-8.08348
▁telemóvel	-8.08556
▁esperar	-8.08563
E	-8.08631
▁Tem	-8.08863
▁Sorry	-8.09001
▁começar	-8.09003
▁quarto	-8.09245
▁vão	-8.09254
▁maria	-8.09281
▁Podes	-8.09312
▁Uma	-8.09633
Q	-8.1023
F	-8.10572
▁too	-8.10598
▁sabes	-8.10639
▁Goodnight	-8.1064
▁filme	-8.11223
▁fiz	-8.11302
▁falta	-8.11327
▁feliz	-8.11343
▁will	-8.12037
▁qualquer	-8.12059
▁love	-8.12061
lo	-8.12091
▁pena	-8.12154
▁lhe	-8.12319
to	-8.12627
▁Good	-8.12767
▁Qual	-8.1277
▁lado	-8.12848
▁Os	-8.12861
▁M	-8.13263
R	-8.13452
▁cabeça	-8.14211
▁Tipo	-8.14211
▁conseguir	-8.14869
▁voltar	-8.14901
▁dele	-8.1521
▁pai	-8.1567
▁up	-8.15874
▁18	-8.15924
P	-8.15936
▁correr	-8.16
▁esse	-8.16011
▁15	-8.16595
▁volta	-8.17
❤	-8.17103
▁Diz	-8.17235
▁toda	-8.1725
▁Vamo	-8.1732
▁Ao	-8.17407
C	-8.17764
▁sorte	-8.17925
▁F	-8.17935
▁Bye	-8.1799
▁quem	-8.18542
▁mensagem	-8.18672
▁avó	-8.18675
▁B	-8.18908
▁bastante	-8.19436
▁duas	-8.19443
\	-8.20115
▁difícil	-8.20205
H	-8.20761
▁dinheiro	-8.2098
▁😘	-8.20988
▁Isto	-8.2099
)_	-8.21284
▁fosse	-8.21467
▁vejo	-8.21784
▁Sou	-8.22107
ツ	-8.22548
▁guess	-8.2255
▁disso	-8.2255
▁minutos	-8.22701
ta	-8.22963
▁têm	-8.23346
▁engraçado	-8.24142
▁rápido	-8.24142
▁anos	-8.2471
▁mean	-8.24781
▁percebi	-8.24889
▁vontade	-8.24949
▁juntos	-8.25141
▁Nunca	-8.25762
▁carro	-8.25764
▁and	-8.25875
▁ler	-8.26505
os	-8.26558
▁c	-8.26565
▁fim	-8.26645
▁u	-8.26658
▁ficou	-8.26779
▁vida	-8.26829
T	-8.27166
▁out	-8.27327
▁poder	-8.27578
in	-8.28163
▁Com	-8.28846
▁Lisboa	-8.29106
▁digo	-8.29122
▁my	-8.29232
▁tinhas	-8.29363
▁deixar	-8.30224
▁Do	-8.30456
▁don	-8.30676
K	-8.30763
ção	-8.30784
▁right	-8.30785
▁pôr	-8.30801
pt	-8.31075
▁6	-8.31239
▁Grande	-8.31646
▁gente	-8.31687
▁andar	-8.31708
▁metro	-8.31743
▁of	-8.31897
▁sabia	-8.3198
▁pipoca	-8.32516
▁nisso	-8.32516
la	-8.32788
▁Fuck	-8.33404
▁N	-8.33414
q	-8.33793
▁Nice	-8.33869
en	-8.3397
▁preciso	-8.34277
▁Yup	-8.34278
▁Gostava	-8.34284
▁À	-8.34288
ram	-8.35135
▁sentir	-8.35141
▁tbh	-8.3517
▁pois	-8.35176
▁sure	-8.35258
▁meia	-8.3559
▁Mais	-8.36082
▁really	-8.36082
▁amigos	-8.36201
ca	-8.36636
▁d	-8.36849
▁Posso	-8.36981
▁chill	-8.36984
▁teus	-8.37122
▁Sabes	-8.37238
G	-8.37238
▁Don	-8.37492
▁fico	-8.3769
▁demasiado	-8.37898
▁triste	-8.37905
▁la	-8.38122
Y	-8.38781
▁fácil	-8.38824
▁dito	-8.38839
▁Omg	-8.38849
▁comida	-8.38853
▁estiver	-8.38924
▁V	-8.39012
▁Also	-8.39759
▁cabelo	-8.39759
W	-8.39787
▁certo	-8.40721
▁11	-8.40796
▁sono	-8.40925
▁dela	-8.41341
▁Provavelmente	-8.41654
▁lavar	-8.41708
▁rip	-8.41715
▁true	-8.41776
▁Seria	-8.41836
▁perceber	-8.42037
▁Te	-8.42205
▁muita	-8.42324
▁insta	-8.42572
▁Still	-8.42615
▁sentido	-8.42632
▁aquilo	-8.42679
▁morrer	-8.42687
▁meio	-8.4286
▁todas	-8.43581
▁sala	-8.43746
N	-8.43906
J	-8.44201
▁super	-8.44315
▁can	-8.44348
ro	-8.4437
▁Btw	-8.44567
▁talvez	-8.44579
co	-8.44912
▁Vi	-8.45025
▁problema	-8.45374
▁estamos	-8.45968
▁Fico	-8.46344
▁pior	-8.46411
▁arruma	-8.46557
▁certeza	-8.46557
▁dores	-8.47045
▁estive	-8.47087
▁apenas	-8.4713
▁Desculpa	-8.4748
▁Fui	-8.47567
▁percebo	-8.47576
▁cara	-8.47637
...	-8.47638
▁arranjar	-8.47705
▁Ai	-8.47838
▁nas	-8.47858
▁foram	-8.47946
á	-8.48369
or	-8.48374
▁14	-8.48444
▁frente	-8.48587
▁fez	-8.48596
▁b	-8.49187
▁exame	-8.49467
▁p	-8.49906
▁És	-8.50275
▁en	-8.50336
al	-8.50463
▁Sempre	-8.5066
▁algo	-8.50692
▁trabalhar	-8.50701
▁embora	-8.50716
L	-8.50762
▁ligar	-8.50795
▁todo	-8.50813
le	-8.51424
▁acabei	-8.51725
▁Este	-8.52242
▁17	-8.52527
▁trabalho	-8.52786
▁contente	-8.52788
▁final	-8.53568
▁Talvez	-8.53852
▁what	-8.53858
▁querer	-8.53991
▁Da	-8.54005
▁consegui	-8.54011
▁gostas	-8.54058
▁G	-8.54687
▁Okapa	-8.54939
▁Assim	-8.54945
▁omg	-8.55058
▁podia	-8.55603
ma	-8.55653
mo	-8.55736
!!!	-8.55796
ria	-8.55869
▁Quem	-8.56001
▁altura	-8.56038
▁Estive	-8.56039
▁irmã	-8.56796
▁sabe	-8.56832
▁momento	-8.5714
▁Daqu	-8.5714
▁aquela	-8.5715
▁feito	-8.5715
▁Tive	-8.57163
Z	-8.57163
▁apanhar	-8.57463
▁vale	-8.57937
▁Porquê	-8.58272
▁espero	-8.58272
▁nós	-8.5828
▁gostava	-8.58285
▁sido	-8.58328
▁:(	-8.58332
▁haver	-8.58386
▁achas	-8.59071
▁teres	-8.59208
▁importante	-8.59406
▁sucks	-8.59409
▁conta	-8.59853
▁perguntar	-8.59961
▁So	-8.60125
▁Exato	-8.60558
▁próxima	-8.60558
▁Achas	-8.60563
▁Pelo	-8.60571
▁chato	-8.60614
*	-8.6084
▁on	-8.61143
▁😊	-8.61735
quanto	-8.62081
▁16	-8.62392
▁vê	-8.62569
▁ahah	-8.62641
▁normal	-8.62886
▁30	-8.62915
▁manda	-8.62916
▁devia	-8.63024
▁pc	-8.63036
▁net	-8.63051
is	-8.63227
▁Sure	-8.63379
▁Me	-8.63835
▁qual	-8.64083
▁escrever	-8.64159
▁numa	-8.64595
▁disseste	-8.64703
▁devo	-8.64988
▁durante	-8.65299
▁estavas	-8.65385
▁podemos	-8.65613
ly	-8.65631
▁im	-8.65695
ado	-8.65957
▁dentes	-8.66031
go	-8.66137
▁Olha	-8.66536
▁jogar	-8.66549
▁relatório	-8.66619
▁pagar	-8.66657
▁Go	-8.67041
▁:	-8.67049
%3	-8.67358
▁Hmmm	-8.67523
▁quanto	-8.67548
▁Ahahahah	-8.67581
▁boy	-8.67664
▁claro	-8.67747
▁Ontem	-8.67748
▁acaso	-8.67749
▁viagem	-8.67757
▁família	-8.67762
▁querido	-8.67764
▁Ver	-8.6779
▁Dá	-8.67871
▁Fica	-8.67924
▁Vê	-8.68042
▁alguém	-8.68297
V	-8.68452
▁12	-8.68544
▁cor	-8.68735
▁lab	-8.6935
ga	-8.6951
ce	-8.69524
nos	-8.69535
▁😏	-8.70259
▁princípio	-8.70262
▁roupa	-8.70262
▁mandei	-8.70285
▁cheguei	-8.70314
▁saudades	-8.70335
▁mala	-8.70377
▁rapariga	-8.70533
▁má	-8.70587
▁like	-8.70653
▁Des	-8.71432
▁ninguém	-8.71546
▁cool	-8.71547
▁Fogo	-8.71551
▁neste	-8.71558
▁bateria	-8.71566
▁fiquei	-8.71581
▁chamada	-8.71595
▁chorar	-8.71622
▁facto	-8.71634
▁receber	-8.71735
ve	-8.71776
▁pé	-8.71819
▁wait	-8.72791
▁sexta	-8.72885
▁muitas	-8.73239
▁D	-8.73471
▁quer	-8.73547
▁pensei	-8.74159
▁Podia	-8.74178
▁pedir	-8.74426
ri	-8.74473
ne	-8.74775
▁nenhum	-8.75127
▁outras	-8.7524
▁tho	-8.75423
▁pequeno	-8.75493
▁camisola	-8.75493
▁desculpa	-8.75498
▁damn	-8.75544
▁Ahhh	-8.75769
X	-8.75957
▁li	-8.76666
▁responder	-8.767
▁look	-8.76791
▁Quase	-8.76844
▁levantar	-8.77008
▁then	-8.77161
▁música	-8.77327
na	-8.77857
nna	-8.7796
▁volto	-8.77982
▁pulseira	-8.78214
▁Adoro	-8.78215
▁correu	-8.78329
▁nota	-8.78584
▁vá	-8.78694
▁última	-8.78695
▁👋	-8.79609
▁barba	-8.79612
▁outros	-8.80019
▁ajudar	-8.80263
▁algum	-8.80714
▁mando	-8.8088
lhe	-8.80966
▁ansioso	-8.81011
▁domingo	-8.81011
▁quarta	-8.81011
▁still	-8.81011
▁resto	-8.81013
▁Deve	-8.81109
▁fuck	-8.81134
▁ias	-8.81147
▁W	-8.81215
▁Esse	-8.81278
▁Nada	-8.81297
▁mo	-8.81305
▁Yo	-8.81646
▁acontecer	-8.82196
é	-8.82213
▁último	-8.82439
▁😢	-8.82446
▁estudo	-8.82496
pa	-8.82529
▁dizes	-8.83013
▁deixa	-8.83221
▁vem	-8.83546
▁idea	-8.83783
▁jeito	-8.83889
▁provavelmente	-8.83889
▁Onde	-8.8389
▁sleep	-8.84065
▁olá	-8.84098
▁tiver	-8.84236
▁minhas	-8.84557
▁professor	-8.8477
res	-8.84822
no	-8.84913
▁this	-8.85359
▁gostei	-8.85391
▁fazes	-8.85825
▁olhos	-8.86052
▁sítio	-8.86063
▁pergunta	-8.86556
▁amor	-8.86617
▁devias	-8.86671
▁lembro	-8.86852
▁quinta	-8.86852
▁Cheguei	-8.86852
▁sozinha	-8.86856
▁caro	-8.86935
di	-8.86992
▁viste	-8.87293
▁algumas	-8.87478
▁novo	-8.87805
▁gosta	-8.88142
▁sinto	-8.88361
▁acabou	-8.8842
▁nossa	-8.88429
▁Tinha	-8.88451
▁aconteceu	-8.88514
▁eyp	-8.88539
▁ok	-8.88568
▁Deixa	-8.88701
ada	-8.88722
id	-8.89156
▁Faz	-8.89221
▁dava	-8.89633
▁razão	-8.89905
▁happy	-8.89905
▁cansada	-8.89915
▁festa	-8.89915
▁reunião	-8.89941
▁porta	-8.89954
▁fun	-8.89956
▁umas	-8.90001
▁tuas	-8.90054
▁Senão	-8.90095
▁mandou	-8.90148
▁será	-8.90459
li	-8.90601
▁prenda	-8.9077
▁grupo	-8.91468
▁btw	-8.91468
▁brincar	-8.91472
▁Ahh	-8.91476
▁passe	-8.91483
▁tal	-8.91592
▁abrir	-8.91723
▁teve	-8.91834
▁tenha	-8.9233
▁livro	-8.92353
▁Técnico	-8.93055
▁anexo	-8.93055
▁suposto	-8.9306
▁incrível	-8.93063
▁Love	-8.93066
▁desde	-8.93181
ter	-8.93274
▁your	-8.93477
▁nenhuma	-8.93492
▁caso	-8.94012
▁desta	-8.94534
▁entre	-8.94554
▁Byeee	-8.94586
▁Ahahah	-8.94609
▁Wait	-8.94639
▁havia	-8.9467
▁💛	-8.94675
▁passado	-8.94753
nt	-8.94971
▁Can	-8.95096
it	-8.95216
ch	-8.95717
▁video	-8.95718
▁precisas	-8.95868
que	-8.95907
▁próximo	-8.96307
▁resposta	-8.96308
▁worry	-8.96309
▁natal	-8.96408
▁Faze	-8.966
penas	-8.96797
▁U	-8.9688
be	-8.97011
ti	-8.97126
▁Devias	-8.97496
▁The	-8.97717
bo	-8.97782
▁atenção	-8.97974
▁How	-8.97979
▁Shit	-8.98019
▁carregar	-8.98033
▁vestir	-8.9814
▁cada	-8.98149
▁chegou	-8.98195
ós	-8.98275
▁chega	-8.98321
▁estavam	-8.99065
▁bye	-8.99187
▁Done	-8.99293
▁nao	-8.99302
▁co	-8.9935
▁relação	-8.99669
▁sábado	-8.99669
▁yeah	-8.99669
▁with	-8.99669
▁funny	-8.99676
▁atendeu	-8.99694
▁Sad	-8.99719
não	-9.00233
▁Quer	-9.00342
at	-9.0036
facebook	-9.00533
▁diferente	-9.00885
▁tivesse	-9.00912
▁af	-9.01019
▁Falta	-9.01028
▁ma	-9.01068
▁deu	-9.01267
▁baixo	-9.01393
▁:&#039;(	-9.01394
▁Logo	-9.01396
▁Essa	-9.01431
nviaste	-9.0145
▁entrar	-9.01481
das	-9.01534
▁beijinhos	-9.01611
st	-9.01725
▁mudar	-9.01933
nte	-9.02201
▁fora	-9.02481
▁exercício	-9.02674
▁visto	-9.02687
▁apetece	-9.02799
▁Pens	-9.02921
▁Corre	-9.03146
▁foste	-9.03149
▁acordei	-9.03165
▁adormecer	-9.03233
▁nosso	-9.03325
▁pelos	-9.03489
▁estado	-9.03641
pi	-9.03796
▁Ohhh	-9.03956
▁Hi	-9.04219
ço	-9.04325
▁Hello	-9.04379
▁André	-9.04933
▁Diogo	-9.04933
▁Gostei	-9.04933
▁buscar	-9.04937
▁mostrar	-9.05007
▁💕	-9.05013
▁dentro	-9.05318
▁13	-9.05537
▁Aqui	-9.05659
▁demorar	-9.06048
▁Sei	-9.06372
▁código	-9.06751
▁dói	-9.06751
▁mensagens	-9.06751
▁porquê	-9.06751
▁Brb	-9.06752
▁várias	-9.06752
▁much	-9.06757
▁Verdade	-9.06774
quer	-9.06881
▁meses	-9.06961
▁19	-9.07051
ir	-9.07354
▁fores	-9.0762
▁eram	-9.0801
▁23	-9.08112
▁bilhete	-9.08285
▁get	-9.08345
▁chego	-9.08384
▁barato	-9.08603
▁preocupes	-9.08603
▁about	-9.08761
▁nome	-9.08781
▁ajuda	-9.08821
▁afinal	-9.08852
▁continuar	-9.08937
▁medo	-9.0899
▁estas	-9.09115
▁x	-9.09128
▁Meh	-9.09248
▁Eia	-9.09338
▁porto	-9.09487
▁one	-9.09512
▁deles	-9.09534
▁passa	-9.09692
▁escolher	-9.09826
▁m	-9.09837
ng	-9.10341
▁luz	-9.10342
▁luck	-9.1038
▁Dói	-9.1049
▁Obrigada	-9.1049
▁ginásio	-9.1049
▁shit	-9.1049
▁why	-9.10492
▁pls	-9.10494
▁experimentar	-9.10501
▁semestre	-9.10516
▁amiga	-9.10613
▁pro	-9.10742
▁H	-9.10988
▁vistos	-9.10993
▁pernas	-9.11121
▁We	-9.11371
▁seca	-9.11703
▁igual	-9.12019
▁amigo	-9.12134
▁need	-9.12266
▁Depende	-9.12413
▁😞	-9.12413
▁tanta	-9.12419
▁barriga	-9.12422
▁Perde	-9.12428
▁Turn	-9.12434
▁custa	-9.12495
▁seguir	-9.12498
ck	-9.12763
▁there	-9.12811
▁deitar	-9.12925
▁-	-9.13349
▁nova	-9.1356
▁demora	-9.13747
▁thank	-9.14113
▁calças	-9.14376
▁Really	-9.14378
▁sense	-9.14398
▁afonso	-9.14399
▁falamos	-9.14476
▁tratar	-9.14482
▁Aquele	-9.14549
▁Hey	-9.14661
▁lisboa	-9.14742
▁envio	-9.14857
▁Ia	-9.14936
▁was	-9.15088
15	-9.15231
▁Opa	-9.15625
▁ires	-9.15714
▁testes	-9.15848
▁mão	-9.16214
▁ponto	-9.16231
▁água	-9.16374
▁Back	-9.16374
▁proud	-9.16374
▁Fiquei	-9.16374
▁fizeste	-9.16386
▁Antes	-9.16388
▁disto	-9.16393
ação	-9.16514
▁terça	-9.16526
%2	-9.16603
▁mandaste	-9.16605
▁Re	-9.16669
▁real	-9.16679
▁n	-9.16741
20	-9.16871
íamos	-9.1739
???	-9.17439
▁Podemo	-9.18163
▁bonita	-9.18189
▁maior	-9.18294
▁0	-9.18408
▁horrível	-9.18415
▁treino	-9.18416
▁Pronto	-9.18416
▁período	-9.18424
▁weird	-9.18474
▁But	-9.18495
▁Estão	-9.18559
▁got	-9.18638
▁essas	-9.18726
▁exames	-9.1874
▁contar	-9.18847
▁erro	-9.1888
▁Sem	-9.18956
▁Yay	-9.19361
▁pe	-9.19436
mail	-9.19483
ka	-9.19542
í	-9.1972
an	-9.19915
▁did	-9.20055
▁Hmm	-9.20161
▁horário	-9.20234
▁segundo	-9.20311
aaa	-9.20335
▁now	-9.20336
▁lindo	-9.20353
!!!!	-9.20389
▁fazia	-9.20459
▁Bernardo	-9.20498
▁mês	-9.20498
▁Lmao	-9.20498
▁máximo	-9.205
▁Cute	-9.205
▁perto	-9.2051
▁adoro	-9.20558
▁💖	-9.20602
▁gozar	-9.20694
po	-9.20755
▁começa	-9.20922
▁are	-9.2095
▁consegues	-9.21296
▁we	-9.21373
▁son	-9.21529
ut	-9.21677
▁L	-9.21769
▁g	-9.2195
▁si	-9.22069
▁Ahhhh	-9.222
▁carta	-9.22415
vamos	-9.22446
▁feel	-9.22576
▁partir	-9.22628
▁yes	-9.22643
▁merda	-9.22649
▁função	-9.2266
▁começou	-9.22686
▁Be	-9.22717
▁encontrar	-9.22759
▁Dia	-9.22803
▁cozinhar	-9.22861
▁estares	-9.22929
▁conhecer	-9.22955
ito	-9.23869
▁melhores	-9.2417
1)	-9.24361
io	-9.24433
▁22	-9.24495
▁miss	-9.24542
▁cadeira	-9.24692
▁Jk	-9.24794
▁janela	-9.248
▁praxe	-9.248
▁minimeu	-9.248
▁frio	-9.24802
▁arroz	-9.24802
▁fome	-9.24802
▁aero	-9.24835
▁Quanto	-9.24851
▁cagar	-9.24877
▁beber	-9.24958
▁Queria	-9.25003
inha	-9.25102
+	-9.25118
▁ra	-9.26428
sse	-9.26568
▁ouvi	-9.26574
▁man	-9.26793
▁dizeres	-9.26845
ções	-9.26934
▁episódio	-9.26953
▁houve	-9.27013
▁recebi	-9.27023
▁xana	-9.27027
▁nervosa	-9.27061
▁back	-9.27089
▁Hmmmm	-9.27319
▁dormi	-9.2735
▁Mostra	-9.27465
▁And	-9.27676
▁melhorar	-9.27774
ci	-9.28429
▁decidi	-9.28718
▁acontece	-9.29057
▁Pedro	-9.29295
▁inglês	-9.29295
▁lmao	-9.29295
▁Melhor	-9.29295
▁just	-9.29295
▁Okok	-9.29296
▁cheio	-9.29301
▁importo	-9.2933
lt	-9.29358
▁reparei	-9.29367
▁💜	-9.29574
▁Sai	-9.29888
▁ficava	-9.2994
tu	-9.30045
▁vídeos	-9.31398
▁boca	-9.31423
▁See	-9.31609
▁acredito	-9.3162
▁direito	-9.3162
▁física	-9.3162
▁Luís	-9.31621
▁estranha	-9.31621
▁início	-9.31626
▁Disse	-9.31656
emos	-9.31732
▁deste	-9.31994
ge	-9.32147
▁problemas	-9.3223
sta	-9.32518
▁aquele	-9.32754
ido	-9.32953
▁Sinto	-9.34001
▁estilo	-9.34001
▁literalmente	-9.34001
▁suficiente	-9.34001
▁Goals	-9.34002
▁again	-9.34002
▁100%	-9.34021
▁explicar	-9.34098
▁bad	-9.34201
▁aprender	-9.34233
▁tiveres	-9.3431
ámos	-9.34345
ee	-9.34535
▁Aí	-9.34603
▁vemos	-9.34689
▁avisa	-9.35512
▁fale	-9.35807
nd	-9.35954
▁mostra	-9.36162
▁mostro	-9.36211
▁all	-9.36261
sses	-9.36326
▁diferença	-9.3644
▁papel	-9.3644
▁química	-9.3644
▁treta	-9.36446
▁costas	-9.36447
▁ro	-9.36454
▁Wut	-9.36459
▁compras	-9.36493
▁soon	-9.36496
▁Ohh	-9.36649
▁curso	-9.36703
▁rios	-9.36719
▁Porto	-9.36807
▁cortar	-9.37078
99	-9.37136
pe	-9.37474
▁21	-9.37931
▁makes	-9.38347
ó	-9.38399
ba	-9.38517
nta	-9.38617
•	-9.3894
▁localização	-9.3894
▁única	-9.3894
▁😟	-9.3894
▁preferires	-9.38943
▁integral	-9.38953
▁sessão	-9.38959
▁corpo	-9.38961
▁maneira	-9.39118
▁at	-9.39244
▁see	-9.39331
▁To	-9.39418
▁Ficou	-9.39503
▁dreams	-9.39666
▁Tudo	-9.39724
▁Estavas	-9.39813
▁achar	-9.39927
▁sol	-9.3997
▁email	-9.40117
lém	-9.4026
ões	-9.40466
▁podem	-9.4059
▁if	-9.40634
▁Nao	-9.40866
▁termos	-9.40909
eee	-9.41263
▁avião	-9.41504
▁bonito	-9.41504
▁Adiós	-9.41504
▁aguento	-9.41504
▁gajo	-9.41505
▁babe	-9.41507
▁máquina	-9.41508
▁nesta	-9.4151
▁Fixe	-9.41513
▁Bora	-9.41516
▁pewdiepie	-9.41516
▁Imagino	-9.41517
▁social	-9.41522
▁espaço	-9.41523
▁acordado	-9.41528
▁vestido	-9.41537
▁simplesmente	-9.41554
▁importava	-9.41691
▁atrás	-9.41753
▁olhar	-9.41854
▁imensa	-9.41875
▁estiveres	-9.4196
40	-9.4198
▁z	-9.42017
▁achei	-9.42189
▁ta	-9.4246
▁conseguia	-9.42573
▁massa	-9.42593
vo	-9.42685
fi	-9.42864
us	-9.42968
▁funcionar	-9.4334
▁ha	-9.43399
▁estivesses	-9.43714
▁sangue	-9.44136
▁😂	-9.44136
▁culpa	-9.44136
▁projeto	-9.44136
▁Sweet	-9.44142
▁cheia	-9.44151
▁kinda	-9.44154
▁complicado	-9.44173
▁pizza	-9.44191
▁homem	-9.44335
▁Compra	-9.44364
▁questão	-9.44682
eu	-9.44684
▁estivesse	-9.44735
ist	-9.44793
ao	-9.4482
/2	-9.45101
gu	-9.45515
quilo	-9.45818
▁Li	-9.45964
ema	-9.46229
posto	-9.46434
ish	-9.46451
▁Alright	-9.46838
▁conheço	-9.46839
▁esforço	-9.46839
▁Basicamente	-9.46839
▁intenso	-9.46839
▁esqueças	-9.46839
▁conduzir	-9.4684
▁vocês	-9.4684
▁veio	-9.46841
▁Idk	-9.46841
▁Milão	-9.46855
▁câmara	-9.46873
▁tired	-9.46901
▁sete	-9.46971
▁possa	-9.47065
aaaa	-9.47066
▁passou	-9.47068
aste	-9.47105
▁bilhetes	-9.47387
▁voo	-9.47485
▁dessa	-9.47489
▁Ne	-9.4756
▁desse	-9.4785
el	-9.4829
▁ido	-9.48525
▁tinham	-9.48637
▁boas	-9.4878
▁In	-9.49221
▁condução	-9.49616
▁escola	-9.49616
▁excited	-9.49616
▁laboratório	-9.49616
▁lembrei	-9.49616
▁chá	-9.49617
▁bons	-9.49623
▁Fiz	-9.49625
▁sozinho	-9.49625
▁Imagina	-9.49628
▁diria	-9.49636
▁Right	-9.49684
▁encontro	-9.49684
▁falo	-9.49695
▁normalmente	-9.49723
▁partilhar	-9.49889
ting	-9.50054
▁descansar	-9.50177
▁vlog	-9.50182
ita	-9.50327
▁k	-9.50627
▁+	-9.50666
▁boi	-9.50766
▁Yesss	-9.50851
▁comi	-9.51011
▁su	-9.51584
ooo	-9.51701
videos	-9.51902
▁imensas	-9.52062
▁passo	-9.5238
▁lugar	-9.52432
▁péssimo	-9.52473
▁cálculo	-9.52474
▁enough	-9.52474
▁Wtf	-9.52474
▁mochila	-9.52474
▁Hope	-9.52475
▁ponho	-9.52477
▁Funny	-9.52478
▁Comprei	-9.52479
▁achava	-9.52506
▁especial	-9.5255
▁night	-9.52638
▁resolver	-9.52673
00	-9.52732
▁saio	-9.52775
▁pontos	-9.52792
▁aproveitar	-9.53013
▁date	-9.53016
▁concerto	-9.53026
▁make	-9.53168
▁Vá	-9.53189
▁Sup	-9.53263
▁gastar	-9.53392
▁tenhas	-9.53663
▁acaba	-9.53777
ê	-9.53937
mento	-9.53952
mas	-9.54636
▁doer	-9.54849
▁vês	-9.55101
▁24	-9.55104
▁teria	-9.55106
nds	-9.55131
=1	-9.55183
▁Baby	-9.55197
▁cozinha	-9.55348
▁experiência	-9.55415
▁mundo	-9.55428
▁João	-9.5543
▁rabo	-9.55433
▁longe	-9.55448
▁but	-9.55538
▁Wil	-9.55592
▁:)	-9.55613
▁importa	-9.5566
▁Ma	-9.55782
bi	-9.55802
▁fala	-9.56142
▁funciona	-9.56148
gt	-9.56906
▁app	-9.57032
12	-9.57102
▁tido	-9.57553
▁liga	-9.57576
un	-9.58033
▁decidir	-9.58437
▁Probably	-9.58445
▁fancy	-9.58445
▁óculos	-9.58445
&#123;	-9.58445
▁caminho	-9.58445
▁editar	-9.58446
▁Será	-9.58447
▁Harry	-9.58447
▁calor	-9.58453
▁tirei	-9.58455
▁limpa	-9.58463
2)	-9.58521
▁estágio	-9.58536
▁Foste	-9.58544
▁força	-9.58604
▁Ohhhh	-9.58724
▁chama	-9.58789
▁thanks	-9.58855
▁vens	-9.58965
▁subir	-9.59105
▁nessa	-9.59218
▁diferentes	-9.59351
▁corre	-9.5936
mi	-9.59443
▁Devia	-9.59566
ça	-9.60113
ência	-9.60433
▁come	-9.60472
▁perguntas	-9.60508
▁falarmos	-9.60632
▁y	-9.60633
im	-9.60903
▁sa	-9.61335
▁simples	-9.61525
▁querias	-9.61547
dos	-9.61559
ínhamos	-9.6157
▁central	-9.6157
▁biológica	-9.6157
▁aceito	-9.61571
▁Kinda	-9.61571
▁treinar	-9.61572
▁parecia	-9.61572
▁obrigada	-9.61572
▁Pena	-9.61577
▁bitch	-9.61582
▁preparar	-9.61596
▁linha	-9.61601
▁preferida	-9.61603
▁star	-9.61615
▁comprei	-9.61626
▁aced	-9.61689
▁Alguma	-9.61689
▁Beijinhos	-9.61754
▁ex	-9.61862
▁R	-9.6196
▁mimos	-9.62208
▁alguns	-9.62303
▁engraçada	-9.62429
▁fixes	-9.62468
▁plano	-9.62505
▁série	-9.62508
▁sonho	-9.62562
▁ri	-9.62632
▁=	-9.62721
▁lembrar	-9.62726
▁pus	-9.62857
▁stress	-9.6315
▁time	-9.63281
▁Fo	-9.63832
▁sai	-9.63895
▁uso	-9.64522
▁trouxe	-9.64767
▁favor	-9.64783
▁tento	-9.64787
▁gonçalo	-9.64796
▁Adivinha	-9.64796
▁Concordo	-9.64796
▁possibilidade	-9.64796
▁inteiro	-9.64796
▁sitio	-9.64796
▁vários	-9.64796
▁wtf	-9.64796
▁hotel	-9.64803
▁exemplo	-9.64825
▁cartão	-9.64832
▁frango	-9.64837
▁linda	-9.64838
▁história	-9.64845
▁geral	-9.64853
▁namorada	-9.64857
il	-9.64859
▁life	-9.64878
▁falado	-9.64915
▁fomo	-9.64931
▁Have	-9.64992
▁lista	-9.65107
▁levo	-9.65197
ment	-9.65223
tar	-9.65278
yy	-9.65335
▁dizia	-9.65567
ie	-9.65775
▁descobrir	-9.65918
▁aparece	-9.66083
▁notas	-9.66244
11	-9.66414
▁bater	-9.66438
▁pa	-9.66576
ver	-9.66633
▁estejas	-9.66731
ina	-9.675
▁dera	-9.67666
▁Niceee	-9.6768
▁have	-9.67809
idade	-9.67957
▁try	-9.68093
▁Hopefully	-9.68129
▁pretty	-9.68129
▁prática	-9.68129
▁nariz	-9.68129
▁odeio	-9.6813
▁Clássico	-9.68135
▁trazer	-9.68137
▁Acordei	-9.68139
▁gelado	-9.68139
▁querida	-9.68143
▁atrasado	-9.6815
▁want	-9.68151
▁Lá	-9.68163
▁precisar	-9.68275
frac	-9.68289
▁outfit	-9.68293
▁repetir	-9.6843
▁Thi	-9.68435
▁le	-9.68499
▁cp	-9.68502
▁Nota	-9.68677
▁Aww	-9.68698
▁ficas	-9.68749
▁corra	-9.6922
▁usa	-9.69555
ns	-9.69686
10	-9.69737
▁mulher	-9.6983
▁parar	-9.69989
▁Ew	-9.70069
▁ca	-9.70096
iiii	-9.70228
▁viu	-9.70332
ad	-9.70585
▁par	-9.7096
▁fal	-9.70969
ive	-9.71144
aaaaa	-9.71202
-2	-9.71426
youtu	-9.71564
▁Indeed	-9.71577
▁perfeito	-9.71577
▁Aceito	-9.71577
▁brb	-9.71578
▁Daaaamn	-9.71579
▁nisto	-9.71581
▁penso	-9.71582
▁completamente	-9.71583
▁tomei	-9.71584
▁could	-9.71584
▁won	-9.71587
▁praia	-9.71606
▁capaz	-9.7161
▁messenger	-9.71622
▁comecei	-9.71624
▁massagens	-9.71653
eeee	-9.71665
▁tomate	-9.71678
▁mc	-9.7175
▁hot	-9.71793
▁mil	-9.71825
▁off	-9.71936
▁Sa	-9.71963
▁mãos	-9.71972
▁ahaha	-9.71997
▁feira	-9.72025
▁Mal	-9.72133
on	-9.72155
▁filmes	-9.72176
▁perder	-9.7222
▁faltar	-9.72255
▁exercícios	-9.72558
▁Conta	-9.72917
▁Fal	-9.7304
nda	-9.73355
▁chegares	-9.73357
▁Come	-9.73416
▁semanas	-9.73726
▁ja	-9.73848
▁r	-9.73965
▁pensa	-9.74021
ight	-9.74026
dor	-9.74109
▁Ha	-9.74486
du	-9.7483
▁programa	-9.74917
▁olha	-9.74944
▁ligo	-9.74968
▁help	-9.74991
▁work	-9.75008
▁aeroporto	-9.75149
▁glad	-9.75149
▁matéria	-9.75149
▁médico	-9.75149
▁orgânica	-9.75149
▁português	-9.75149
▁situação	-9.75149
▁vomitar	-9.75149
▁aspeto	-9.75149
▁Martim	-9.75149
▁vermelho	-9.7515
▁calculo	-9.7515
▁Joana	-9.7515
▁also	-9.75152
▁hope	-9.75152
▁mexer	-9.75153
▁preço	-9.75158
▁Easy	-9.75177
▁Make	-9.75178
▁preto	-9.75181
▁Pensava	-9.75212
▁Well	-9.75242
▁chuva	-9.75258
▁trás	-9.75269
▁Yep	-9.75294
▁ouvido	-9.75419
▁leva	-9.75419
▁tra	-9.75432
▁vim	-9.75496
▁confusa	-9.75537
▁compro	-9.75617
▁tiveste	-9.75768
▁hate	-9.75769
▁Põe	-9.75785
45	-9.75856
▁professora	-9.7623
▁namorado	-9.76529
tor	-9.76547
▁esses	-9.76739
▁passage	-9.76991
▁Sonh	-9.77255
▁w	-9.77849
▁done	-9.77947
▁continua	-9.77954
▁pi	-9.78353
▁dizem	-9.78366
=2	-9.78396
▁Po	-9.78563
▁quis	-9.78626
▁acordo	-9.78626
°	-9.78707
▁Exatamente	-9.78852
▁pequena	-9.78852
▁switch	-9.78852
▁😉	-9.78852
▁Portugal	-9.78853
▁férias	-9.78853
▁principio	-9.78853
▁wow	-9.78853
▁hospital	-9.78855
▁exatamente	-9.78858
▁zona	-9.7886
▁Smh	-9.78862
▁\(	-9.78872
▁nesse	-9.78877
▁rever	-9.78896
▁mpt	-9.78918
▁Encontramo	-9.78921
▁Devo	-9.78932
▁concentrar	-9.78938
▁entrada	-9.78955
▁entregar	-9.78957
▁playlist	-9.78962
▁Let	-9.78987
▁Ahahahahah	-9.79009
der	-9.79038
▁same	-9.79075
▁primo	-9.7908
▁way	-9.79093
▁goals	-9.79157
est	-9.7918
▁trocar	-9.79276
▁po	-9.79312
▁disseram	-9.79314
▁Gostas	-9.79331
▁Muitos	-9.79349
▁põe	-9.79381
▁Pensa	-9.79382
▁god	-9.79508
▁Chega	-9.79699
▁Con	-9.79799
▁bo	-9.79934
▁teor	-9.79974
▁tivesses	-9.80037
cer	-9.80083
▁chegue	-9.80175
▁fiques	-9.80385
oo	-9.80409
▁esteja	-9.80449
▁best	-9.80479
▁dente	-9.80757
▁He	-9.80979
▁alho	-9.80997
50	-9.81009
um	-9.81138
▁meias	-9.81293
▁muda	-9.81421
▁qu	-9.81427
ico	-9.8149
▁verão	-9.81533
▁vo	-9.81554
▁Lucky	-9.8179
▁Ja	-9.82169
▁estarei	-9.82195
▁meme	-9.82236
▁gr	-9.82497
fe	-9.82666
▁Literalmente	-9.82699
▁awkward	-9.82699
▁churrasco	-9.82699
▁obviamente	-9.82699
▁ridículo	-9.82699
▁◡•)/	-9.82699
▁rude	-9.82699
▁dentista	-9.82699
▁possível	-9.82699
▁objetivo	-9.82699
▁vagina	-9.82699
▁rua	-9.827
▁chão	-9.82701
▁idk	-9.82708
▁matemática	-9.82709
▁Bastante	-9.82711
▁Obrigado	-9.82717
▁prefiro	-9.82719
▁Preferia	-9.82736
▁emoji	-9.82748
▁escolha	-9.82749
▁Gute	-9.82756
▁lol	-9.82795
▁Má	-9.82804
▁acabado	-9.82821
▁quiser	-9.82829
for	-9.82832
ulisboa	-9.82898
▁campo	-9.82898
▁confirmar	-9.82909
0€	-9.83102
▁Ahhhhh	-9.83147
nce	-9.83158
▁doente	-9.83277
▁Got	-9.83289
cha	-9.83347
▁viver	-9.83443
▁baixar	-9.83518
▁mess	-9.83537
bra	-9.83898
▁digas	-9.83924
?&	-9.83993
-1	-9.84129
▁j	-9.84453
ava	-9.84785
▁Mu	-9.84835
qu	-9.85285
▁dado	-9.85408
▁parecer	-9.85447
anda	-9.85499
ante	-9.85618
qui	-9.85631
ig	-9.85675
▁compra	-9.85688
▁más	-9.85721
▁fosses	-9.86162
▁Vem	-9.86252
ouve	-9.86254
▁Qu	-9.86316
gar	-9.86353
▁Nah	-9.8649
▁rapaz	-9.86537
▁percebes	-9.86588
▁esqueci	-9.86607
▁Estar	-9.86662
refiro	-9.86677
▁Basta	-9.86687
▁Yellow	-9.86699
▁cinema	-9.86699
▁vermelha	-9.86699
▁Esqueci	-9.86699
▁azul	-9.86699
▁restaurante	-9.86699
▁sentada	-9.86699
▁equipa	-9.86699
▁basicamente	-9.867
▁opções	-9.867
▁discussão	-9.86704
▁Filipa	-9.86705
▁irritante	-9.86706
▁imagem	-9.86708
▁fila	-9.86729
▁sexy	-9.86743
▁Cya	-9.86754
▁passei	-9.86774
▁traje	-9.86855
▁podias	-9.8687
▁rede	-9.86955
▁saiu	-9.8698
▁mi	-9.87017
▁precisa	-9.87106
▁fazem	-9.87123
▁aguentar	-9.87206
▁hi	-9.87356
▁check	-9.87427
▁chegas	-9.87538
▁sejas	-9.87898
▁Vemo	-9.87899
▁mind	-9.87906
▁saia	-9.88123
▁grave	-9.88524
▁cuddle	-9.8854
▁oportunidade	-9.88545
▁J	-9.88581
▁noção	-9.88608
ias	-9.88638
▁somos	-9.88918
▁lo	-9.89135
▁farta	-9.89334
ug	-9.89417
one	-9.89624
las	-9.89677
▁mar	-9.8996
▁25	-9.90011
€	-9.90096
▁turn	-9.90232
ário	-9.90526
▁problem	-9.90723
▁ahahahah	-9.90802
share	-9.90863
▁Maybe	-9.90865
▁Obviamente	-9.90865
▁Preciso	-9.90865
▁Santiago	-9.90865
▁actually	-9.90865
▁chocolate	-9.90865
▁contrário	-9.90865
▁garganta	-9.90865
▁gigante	-9.90865
▁loiça	-9.90865
▁número	-9.90865
▁preferes	-9.90865
▁péssima	-9.90865
▁razões	-9.90865
▁tamanho	-9.90865
▁👏	-9.90865
▁pedro	-9.90865
▁Entãaaao	-9.90866
▁daquela	-9.90866
▁Nvm	-9.90867
▁imprimir	-9.9087
▁revisão	-9.90871
▁chover	-9.90872
▁Just	-9.90873
▁mood	-9.90875
▁wish	-9.90876
▁pessoalmente	-9.9088
▁Começa	-9.90882
▁perguntei	-9.90889
▁sentes	-9.90897
▁voz	-9.90919
▁nacht	-9.90921
▁continente	-9.90957
▁perguntou	-9.90975
▁girl	-9.9099
▁Meu	-9.91012
▁deixou	-9.91024
▁sexo	-9.91025
▁Ahahaha	-9.91186
▁late	-9.91236
▁pensava	-9.91252
ende	-9.91273
▁vista	-9.91302
▁ugh	-9.91336
▁Ter	-9.91386
los	-9.91404
▁cores	-9.91415
per	-9.91782
almente	-9.91794
car	-9.91853
▁Aka	-9.91969
▁mesa	-9.92098
▁Vej	-9.92126
▁tia	-9.92778
▁borbulha	-9.92915
▁dorme	-9.93077
ny	-9.93361
ados	-9.93501
▁For	-9.9352
▁ai	-9.93571
▁músicas	-9.93649
▁chamar	-9.9368
▁descobri	-9.93732
aa	-9.94037
lisboa	-9.94194
▁Vês	-9.94352
eiro	-9.94443
▁du	-9.94548
▁bue	-9.94859
▁Tenta	-9.9492
▁leve	-9.9497
▁contra	-9.95012
▁Precisa	-9.95095
shirt	-9.95177
les	-9.95211
▁Avisa	-9.95213
▁Coitado	-9.95213
▁barulho	-9.95213
▁género	-9.95213
▁praticamente	-9.95213
▁bebé	-9.95213
▁burra	-9.95213
▁aviso	-9.95213
▁hipótese	-9.95214
▁noutro	-9.95214
▁Aquela	-9.95214
▁aceite	-9.95214
▁Tbh	-9.95215
▁solução	-9.95217
▁opção	-9.95218
▁Chego	-9.9522
▁interessante	-9.9522
▁pronta	-9.95232
▁estúpido	-9.95234
▁lembrava	-9.95242
▁cansado	-9.95256
▁alto	-9.95259
ica	-9.95262
et	-9.95283
ent	-9.95298
▁Foram	-9.95298
▁coração	-9.95379
▁✨	-9.95417
▁v	-9.95434
▁Pergunta	-9.95483
▁estação	-9.95541
▁Ansiosa	-9.95571
▁site	-9.95631
▁chegaste	-9.95671
▁veres	-9.95725
▁aparecer	-9.95833
▁tecnico	-9.95899
▁gostou	-9.95969
▁Co	-9.96127
1=	-9.96135
▁sequer	-9.96161
▁40	-9.96187
▁palavras	-9.96194
▁Gg	-9.96255
▁Toma	-9.96282
▁existe	-9.96298
▁l	-9.96411
ic	-9.96544
▁more	-9.96569
são	-9.96737
ixa	-9.96868
▁pre	-9.97047
▁beijo	-9.97458
▁dúvida	-9.97478
ando	-9.97625
man	-9.97892
▁irmos	-9.98128
▁sendo	-9.98154
▁sais	-9.98385
▁via	-9.98686
▁En	-9.98803
how	-9.98923
▁Uhh	-9.99339
ã	-9.99362
▁Fala	-9.99395
▁Hii	-9.99531
up	-9.99663
▁significa	-9.99665
▁wanna	-9.99751
type	-9.99754
▁eheh	-9.99759
▁Portanto	-9.99759
▁Sleep	-9.99759
▁atraente	-9.99759
▁descrição	-9.99759
▁gráfico	-9.99759
▁grátis	-9.99759
▁online	-9.99759
▁relógio	-9.99759
▁simpático	-9.99759
▁ordem	-9.99759
▁Odeio	-9.99759
▁benuron	-9.9976
▁loja	-9.99761
▁should	-9.99762
▁escadas	-9.99762
▁print	-9.99762
▁review	-9.99766
▁rosa	-9.99773
▁inchado	-9.99778
▁sms	-9.99792
▁farto	-9.99793
▁Fun	-9.99797
onald	-9.99803
king	-9.99813
▁fase	-9.9982
▁saco	-9.99825
▁molho	-9.99851
▁sinal	-9.99856
▁puderes	-9.99876
▁fazemos	-9.99892
▁portugal	-9.99895
▁depilação	-9.99901
lho	-9.99917
▁calcular	-9.99931
▁imaginar	-9.99979
▁chata	-9.99982
▁tocar	-10.0003
▁fundo	-10.0006
▁batatas	-10.0014
▁guarda	-10.0017
▁buéeeee	-10.0021
▁airbnb	-10.0032
▁Somos	-10.0036
25	-10.0037
tro	-10.005
ct	-10.0077
▁La	-10.008
▁idade	-10.0091
▁sua	-10.0093
▁som	-10.0103
▁Ven	-10.012
▁marcar	-10.0142
old	-10.0147
che	-10.0148
rt	-10.0159
ine	-10.0171
amente	-10.0199
▁Comi	-10.0211
▁colega	-10.0211
▁thing	-10.0219
▁miúdo	-10.0222
ref	-10.0233
▁ganhar	-10.026
▁acha	-10.0263
ast	-10.0284
tion	-10.0284
▁saí	-10.0287
▁est	-10.03
▁memes	-10.0311
▁Get	-10.0314
▁dados	-10.0324
oooo	-10.0329
▁100	-10.0332
▁sabem	-10.0366
▁olho	-10.0366
check	-10.0371
▁delas	-10.0393
zar	-10.0415
yyy	-10.0442
▁queixar	-10.0442
▁think	-10.0446
ento	-10.0447
▁Anyhow	-10.0452
▁Daaamn	-10.0452
▁média	-10.0452
▁tomorrow	-10.0452
▁zelda	-10.0452
▁Mandei	-10.0452
▁desligar	-10.0452
▁penses	-10.0452
▁sessões	-10.0452
▁carregador	-10.0452
▁Quais	-10.0452
▁cringe	-10.0453
room	-10.0453
▁Ikr	-10.0453
▁cuidado	-10.0453
▁explicação	-10.0454
▁gala	-10.0455
▁facilmente	-10.0455
▁con	-10.0455
▁bora	-10.0456
▁Yey	-10.0457
▁planear	-10.0458
▁harry	-10.0459
able	-10.046
▁rico	-10.046
▁Yolo	-10.0462
▁Espera	-10.0465
fa	-10.0471
▁pão	-10.0476
▁mostre	-10.0481
▁encontrei	-10.0488
▁ready	-10.0491
▁desistir	-10.0508
▁down	-10.0509
out	-10.0521
▁tiro	-10.0522
19	-10.0525
▁first	-10.0528
▁pipi	-10.0544
▁Num	-10.0549
ion	-10.0551
▁esp	-10.0564
▁comentários	-10.0594
▁Cal	-10.0626
dy	-10.0641
ni	-10.0681
▁partes	-10.0702
tal	-10.0707
▁terem	-10.0736
▁q	-10.0744
guei	-10.075
ras	-10.0751
▁top	-10.0758
nho	-10.0792
▁sonhos	-10.0802
Too	-10.0817
nto	-10.0821
▁yo	-10.0823
▁Ahahahha	-10.0852
▁dessas	-10.0861
ana	-10.0864
tas	-10.0878
▁home	-10.0923
▁pago	-10.0932
▁prova	-10.0937
open	-10.0948
▁Weird	-10.0952
ಥ	-10.0952
▁Combinado	-10.0952
▁Consegues	-10.0952
▁Finalmente	-10.0952
▁Itália	-10.0952
▁anterior	-10.0952
▁lanchar	-10.0952
▁levantei	-10.0952
▁pijama	-10.0952
▁sapatos	-10.0952
▁secundário	-10.0952
▁velha	-10.0952
▁biomédica	-10.0952
▁Enjoy	-10.0952
▁frase	-10.0952
▁parecido	-10.0952
▁crl	-10.0952
▁unhas	-10.0952
▁banana	-10.0953
▁yet	-10.0953
▁Saí	-10.0954
▁acontecido	-10.0955
▁etc	-10.0955
▁Normalmente	-10.0955
▁preferido	-10.0956
▁touch	-10.0956
▁abre	-10.0957
▁Update	-10.0959
▁pila	-10.0959
▁reação	-10.0961
▁Yaaay	-10.0961
02	-10.0961
▁italiano	-10.0962
▁posição	-10.0963
▁fato	-10.0964
▁(?)	-10.0969
▁agradecer	-10.0975
▁well	-10.0975
▁capa	-10.0976
▁dê	-10.0981
▁here	-10.0982
▁percebeste	-10.0985
▁chegado	-10.099
▁mini	-10.0995
▁dou	-10.1
▁Todos	-10.1007
▁falou	-10.1009
^2	-10.1019
18	-10.1033
▁K	-10.1037
til	-10.1041
▁Opah	-10.106
ake	-10.1063
▁ahahha	-10.1068
▁corta	-10.1076
▁gostam	-10.1079
▁vires	-10.111
▁ga	-10.1115
▁tira	-10.1135
▁ficam	-10.1151
▁200	-10.1209
▁dúvidas	-10.1211
lot	-10.1227
▁fa	-10.123
▁azar	-10.1237
▁braço	-10.1242
▁livre	-10.1244
▁exercicio	-10.1249
68	-10.1256
▁fotografia	-10.126
▁Meno	-10.1264
52	-10.1281
ice	-10.1282
ak	-10.1305
▁he	-10.1308
▁séries	-10.1321
▁tenta	-10.135
▁baixa	-10.135
▁likes	-10.1353
▁Byeeee	-10.1356
▁estaria	-10.1363
▁labs	-10.1366
esteve	-10.1372
▁procura	-10.1388
spotify	-10.1392
tecnico	-10.1395
first	-10.1397
https	-10.141
▁per	-10.1418
kg	-10.1419
35	-10.142
▁Yaaaa	-10.1429
▁fact	-10.1441
▁Consegui	-10.1467
▁conto	-10.1471
▁estuda	-10.1473
▁á	-10.1477
’	-10.1478
▁Química	-10.1478
▁brincadeira	-10.1478
▁cacifo	-10.1478
▁connosco	-10.1478
▁derivada	-10.1478
▁dificuldade	-10.1478
▁direção	-10.1478
▁flexões	-10.1478
▁futuro	-10.1478
▁própria	-10.1478
▁sweat	-10.1478
▁twist	-10.1478
▁ótimo	-10.1478
▁efeito	-10.1478
▁great	-10.1478
feature	-10.1478
▁Adeus	-10.1478
▁Naaaah	-10.1478
▁nudes	-10.1478
▁Intenso	-10.1478
▁Look	-10.1478
▁segurança	-10.1479
▁would	-10.1479
▁empty	-10.1479
▁bolsa	-10.1479
▁pussy	-10.1479
▁nível	-10.1479
▁feita	-10.1479
▁calções	-10.1479
▁carne	-10.1479
▁coragem	-10.148
▁sangrar	-10.148
▁fair	-10.148
▁face	-10.1481
▁compreendo	-10.1481
▁Liga	-10.1482
▁manter	-10.1483
▁arco	-10.1483
▁Bueda	-10.1483
▁vieres	-10.1484
▁energia	-10.1485
▁Hot	-10.1488
▁faria	-10.1489
▁feeling	-10.1492
▁Pus	-10.1494
▁concordo	-10.1496
▁alameda	-10.1501
▁take	-10.1503
▁precisares	-10.1504
▁pôs	-10.151
amos	-10.152
▁marca	-10.152
▁mandado	-10.152
▁fin	-10.1546
▁how	-10.1579
▁doing	-10.1585
▁Mem	-10.1614
vas	-10.164
ity	-10.165
▁voltas	-10.1663
ah	-10.1672
cul	-10.1696
▁exercicios	-10.1713
▁prendas	-10.1722
▁estes	-10.1735
▁Anda	-10.1756
▁tendo	-10.1759
taque	-10.1762
cas	-10.1767
▁fique	-10.1782
▁verde	-10.1786
▁forte	-10.1786
▁musica	-10.1791
▁gato	-10.1797
▁precisava	-10.1806
▁faça	-10.1808
▁Toda	-10.1816
▁Tira	-10.1839
por	-10.1842
▁piadas	-10.1851
▁Acorda	-10.1856
▁Le	-10.1876
%	-10.188
ther	-10.1888
▁senti	-10.1899
este	-10.1904
by	-10.1922
log	-10.1929
▁arranja	-10.194
72	-10.1943
▁50	-10.1949
▁27	-10.1952
turn	-10.1955
▁adora	-10.1974
29	-10.198
▁cheira	-10.2
▁aqueles	-10.2012
▁atual	-10.2016
▁Su	-10.2017
▁update	-10.2023
▁Eheheh	-10.2033
▁Finally	-10.2034
▁Keep	-10.2034
▁Recebi	-10.2034
▁Segunda	-10.2034
▁aniversário	-10.2034
▁bernardo	-10.2034
▁cascais	-10.2034
▁confortável	-10.2034
▁ficheiro	-10.2034
▁iguais	-10.2034
▁serenata	-10.2034
▁situações	-10.2034
▁adormeci	-10.2034
▁beijar	-10.2034
▁breve	-10.2034
▁durmo	-10.2034
▁oriente	-10.2034
▁branco	-10.2034
▁pressão	-10.2034
▁sofá	-10.2034
▁Pretty	-10.2034
▁free	-10.2034
▁espelho	-10.2034
google	-10.2034
▁smile	-10.2034
▁habituado	-10.2034
▁morning	-10.2034
▁impossível	-10.2035
▁chateada	-10.2035
▁Fizeste	-10.2035
▁blá	-10.2035
▁supostamente	-10.2035
▁língua	-10.2037
▁parabéns	-10.2037
▁prof	-10.2037
▁toalha	-10.2038
▁Lol	-10.2039
▁voltei	-10.204
▁course	-10.2041
▁potter	-10.2041
▁resultado	-10.2042
▁🌟	-10.2046
▁despachar	-10.2048
▁pensado	-10.2049
▁Dormir	-10.2052
▁passear	-10.2052
▁senhora	-10.2056
▁torre	-10.2057
▁acordou	-10.2068
▁namorar	-10.2069
▁entro	-10.2076
▁corrigir	-10.2077
▁fu	-10.208
▁preferia	-10.2082
▁reagir	-10.2089
13	-10.2095
▁corte	-10.2097
▁😍	-10.2098
▁adorar	-10.2112
▁nope	-10.2126
ke	-10.2129
▁reparar	-10.2142
gue	-10.2169
▁novas	-10.2174
▁quente	-10.2175
▁post	-10.2184
ac	-10.2194
▁ficaria	-10.2214
ds	-10.2222
▁contas	-10.2222
▁ali	-10.223
▁anda	-10.2231
▁Ca	-10.2232
▁soube	-10.2234
ino	-10.2236
▁nu	-10.2253
▁faças	-10.2267
▁fotografias	-10.2282
▁vimos	-10.2288
44	-10.2297
▁devem	-10.2323
con	-10.2342
mb	-10.2344
▁cri	-10.235
▁consegue	-10.2356
lguém	-10.2358
▁toma	-10.2365
▁velho	-10.2384
▁filho	-10.2386
▁28	-10.2391
▁conheci	-10.2393
0&	-10.2393
▁bi	-10.2405
ran	-10.2419
▁some	-10.2441
quele	-10.2458
▁bro	-10.2477
▁Chegas	-10.2491
▁descansa	-10.2494
eira	-10.2498
▁vlogs	-10.251
pp	-10.2515
ii	-10.2536
leave	-10.2537
inho	-10.2538
▁mandas	-10.2541
▁di	-10.2552
▁esquece	-10.2553
▁most	-10.2557
05	-10.2581
▁confirma	-10.259
▁pod	-10.26
▁deixo	-10.26
ven	-10.2606
▁fi	-10.261
▁puder	-10.2614
▁trans	-10.2617
▁QUE	-10.2619
▁Colombo	-10.2622
▁Confirmo	-10.2622
▁McD	-10.2622
▁Woooow	-10.2622
▁camisa	-10.2622
▁consulta	-10.2622
▁erasmus	-10.2622
▁lanche	-10.2622
▁Certo	-10.2622
▁extra	-10.2622
▁veja	-10.2622
▁seguro	-10.2622
▁pobre	-10.2622
▁flag	-10.2622
▁natural	-10.2622
▁Gira	-10.2622
▁portuguesa	-10.2622
▁resolução	-10.2622
▁surpresa	-10.2622
▁Outra	-10.2622
▁dificil	-10.2623
▁Martins	-10.2623
▁Continua	-10.2623
▁wars	-10.2623
▁ultima	-10.2623
▁bunda	-10.2623
▁seguinte	-10.2623
▁confusão	-10.2623
▁referência	-10.2623
▁bond	-10.2624
▁principal	-10.2624
▁step	-10.2624
▁companhia	-10.2625
▁computador	-10.2625
▁Faço	-10.2625
ável	-10.2626
▁enviar	-10.2626
▁ocupado	-10.2627
▁acordada	-10.2627
▁Dormiste	-10.2628
▁instalar	-10.2629
▁fight	-10.263
▁crescer	-10.2631
▁valores	-10.2634
▁clara	-10.2635
▁gay	-10.2636
▁alta	-10.2638
▁cair	-10.264
▁sopa	-10.2656
urante	-10.2656
▁cão	-10.266
▁bu	-10.2666
ever	-10.2668
▁trata	-10.2669
▁eventos	-10.2672
▁going	-10.2674
▁Wa	-10.2696
liza	-10.2712
▁Byee	-10.2713
▁considerar	-10.2714
▁31	-10.2719
▁Un	-10.2722
▁apareceu	-10.2723
▁Hmmmmmm	-10.2724
▁procurar	-10.2726
▁Ri	-10.2727
▁usas	-10.2745
high	-10.2748
▁terá	-10.2748
▁Faltam	-10.2759
▁gostaste	-10.2761
▁win	-10.2772
▁reservar	-10.2793
▁promise	-10.2804
▁avisar	-10.2824
mentos	-10.284
RE	-10.285
▁an	-10.2852
tura	-10.2869
▁casaco	-10.2869
▁elogio	-10.287
uess	-10.2871
▁entras	-10.2901
▁gan	-10.2912
▁borbulhas	-10.2944
32	-10.2977
▁dead	-10.2984
▁Bon	-10.2993
▁Are	-10.2994
▁limite	-10.3003
▁neve	-10.3006
▁percebe	-10.3013
▁deves	-10.3043
▁elas	-10.3061
ura	-10.3092
hhhhhh	-10.31
=3	-10.3161
34	-10.3161
É	-10.3166
/4	-10.3206
▁gasta	-10.3207
▁larga	-10.3211
ú	-10.3212
▁depende	-10.3219
▁perdi	-10.3225
▁acabo	-10.3226
ful	-10.3229
of	-10.3235
▁Aaaahhh	-10.3244
▁friend	-10.3245
❣	-10.3247
▁Descansa	-10.3247
▁Sebastião	-10.3247
▁abaixo	-10.3247
▁ansiosa	-10.3247
▁cebola	-10.3247
▁continuo	-10.3247
▁cuecas	-10.3247
▁fórmula	-10.3247
▁organica	-10.3247
▁referir	-10.3247
▁torradas	-10.3247
▁álcool	-10.3247
▁único	-10.3247
▁quantas	-10.3247
▁pausa	-10.3247
▁sistema	-10.3247
▁Stop	-10.3247
▁scary	-10.3247
▁creme	-10.3247
▁totó	-10.3247
▁hard	-10.3247
▁completo	-10.3248
▁temporada	-10.3248
▁aberta	-10.3248
▁strong	-10.3248
▁universidade	-10.3248
▁curto	-10.3249
▁quais	-10.3249
▁Lembrei	-10.325
▁Comigo	-10.325
▁atenta	-10.325
▁confiança	-10.325
▁matlab	-10.325
▁Óbvio	-10.325
▁😔	-10.325
▁🙏	-10.325
▁combinado	-10.3251
▁despertador	-10.3251
▁fizeram	-10.3251
▁norte	-10.3254
▁stressar	-10.3257
▁caiu	-10.3257
▁pele	-10.3258
▁criar	-10.3261
▁link	-10.3263
▁us	-10.3265
▁respondeu	-10.3267
▁tiraste	-10.3267
▁20€	-10.3268
▁momentos	-10.327
70	-10.327
▁esforçar	-10.3271
▁Querias	-10.3272
▁andado	-10.3273
êm	-10.3274
▁comprimento	-10.3277
▁Mo	-10.3279
▁lugares	-10.3281
▁mariana	-10.3288
▁Acredita	-10.3289
▁comprou	-10.3291
ry	-10.3292
▁news	-10.3297
▁fechar	-10.3299
▁programar	-10.3307
▁erros	-10.331
▁sal	-10.3329
▁lea	-10.3332
▁compensar	-10.3332
prestar	-10.3335
▁Ahahahaha	-10.3353
▁ficasse	-10.3358
▁Deu	-10.3367
▁preocupar	-10.3378
▁conseguiu	-10.3383
▁bed	-10.3418
37	-10.3429
press	-10.3459
65	-10.3468
▁saberes	-10.3472
▁irmãos	-10.3475
0%	-10.3491
▁ahahaha	-10.3497
▁inter	-10.3498
▁suja	-10.3499
xe	-10.3501
para	-10.3504
▁Lit	-10.3515
▁escolhe	-10.3523
▁Yaaa	-10.3541
▁miúdos	-10.356
▁bat	-10.3561
▁Estuda	-10.3575
▁bues	-10.3601
▁deus	-10.3612
ick	-10.3627
▁pega	-10.3669
▁quisesse	-10.3676
▁letra	-10.3679
ais	-10.368
▁certa	-10.3682
▁branca	-10.3683
▁fã	-10.3688
▁perna	-10.3691
▁Lembras	-10.3692
▁pareces	-10.3698
▁Ahah	-10.371
ista	-10.374
▁Entre	-10.3768
▁acham	-10.378
55	-10.3783
▁iria	-10.3786
pesar	-10.3824
ಠ	-10.3827
airbnb	-10.3831
nha	-10.3839
feira	-10.3841
▁Nos	-10.3846
▁#	-10.3851
new	-10.3856
▁let	-10.3857
▁irrita	-10.3859
▁Yaaaay	-10.3866
▁imagina	-10.3881
▁senhor	-10.3882
22	-10.3885
▁Acontece	-10.3891
▁Passa	-10.3891
▁Normal	-10.3909
upostamente	-10.3912
html	-10.3913
Á	-10.3914
▁Agradeço	-10.3914
▁Carolina	-10.3914
▁Inocêncio	-10.3914
▁Ready	-10.3914
▁almôndegas	-10.3914
▁ansiedade	-10.3914
▁assunto	-10.3914
▁blowjob	-10.3914
▁civil	-10.3914
▁entupido	-10.3914
▁fluxo	-10.3914
▁fodida	-10.3914
▁francês	-10.3914
▁mínimo	-10.3914
▁perfeita	-10.3914
▁provável	-10.3914
▁quimica	-10.3914
▁David	-10.3914
▁greve	-10.3914
▁equação	-10.3914
▁sensação	-10.3914
▁Imenso	-10.3914
▁normais	-10.3914
▁porcaria	-10.3914
▁venho	-10.3914
▁avô	-10.3914
▁gaja	-10.3914
▁while	-10.3914
▁bbm	-10.3914
▁tampa	-10.3914
▁inteligente	-10.3914
▁partido	-10.3914
▁peqb	-10.3915
▁caixa	-10.3915
▁Terça	-10.3915
▁Ugh	-10.3915
▁black	-10.3915
▁pareço	-10.3916
▁portanto	-10.3916
▁forward	-10.3917
▁dick	-10.3918
▁Never	-10.3918
▁soft	-10.3919
▁abraçar	-10.3919
▁cidade	-10.3919
▁Acabou	-10.3921
▁stc	-10.3921
▁Pela	-10.3922
▁Lindo	-10.3923
▁sotaque	-10.3924
▁publica	-10.3926
▁respirar	-10.3928
▁cantar	-10.3928
▁Lel	-10.3928
▁teoria	-10.3931
▁pá	-10.3934
▁looking	-10.3941
▁drive	-10.3941
▁amazing	-10.3943
▁contou	-10.3943
▁usei	-10.3943
▁agosto	-10.3943
▁falaste	-10.395
▁yay	-10.3955
▁TU	-10.3958
▁encontramo	-10.396
▁guardar	-10.3964
▁maiores	-10.3965
=0	-10.3966
▁big	-10.3967
▁querem	-10.397
spa	-10.3973
▁bia	-10.3974
▁sonhar	-10.3982
▁iam	-10.4003
▁duvidas	-10.4003
1,	-10.4015
zi	-10.402
▁Tf	-10.4021
enta	-10.4022
▁meh	-10.4038
▁lite	-10.4039
▁use	-10.4041
▁Especi	-10.4043
ty	-10.4046
▁ficaste	-10.4057
2018	-10.4061
▁ofc	-10.4064
06	-10.4065
▁far	-10.4066
▁abertos	-10.4068
ávamos	-10.4114
▁aproveita	-10.412
▁nomes	-10.4125
ente	-10.4125
▁Thanks	-10.4127
▁incomoda	-10.4133
▁gostes	-10.4134
gr	-10.4138
sso	-10.417
▁Par	-10.4172
endo	-10.4191
▁ganha	-10.4194
▁íamos	-10.42
▁casos	-10.4202
▁Pa	-10.4206
▁Tir	-10.4243
64	-10.4245
98	-10.4246
__	-10.4249
▁dor	-10.425
▁tornar	-10.4252
▁diaaa	-10.4259
▁sítios	-10.4283
je	-10.4289
fer	-10.43
▁bit	-10.4319
▁st	-10.4327
▁vs	-10.4332
via	-10.4338
▁sabias	-10.4348
sim	-10.435
ving	-10.4371
▁videos	-10.4391
▁cham	-10.4394
▁diga	-10.4403
bem	-10.4413
▁melhoras	-10.4431
%5	-10.4437
▁apagar	-10.4459
96	-10.4469
43	-10.4485
;)	-10.4504
▁goste	-10.4505
▁abri	-10.4507
▁quantos	-10.452
78	-10.4521
tos	-10.4529
▁Tal	-10.4534
fu	-10.4534
▁subi	-10.4539
/6	-10.4542
😍	-10.4544
▁compensa	-10.4549
/1	-10.455
valia	-10.455
▁control	-10.457
gh	-10.4572
▁Demor	-10.4573
▁Miss	-10.4595
▁agradece	-10.4595
▁segui	-10.4596
▁29	-10.4596
orry	-10.4617
▁levanta	-10.4622
▁direta	-10.4623
▁fisica	-10.4623
▁break	-10.4626
abilidade	-10.4628
▁Claramente	-10.4628
▁Contigo	-10.4628
▁Prometo	-10.4628
▁Shame	-10.4628
▁assustador	-10.4628
▁atividade	-10.4628
▁direita	-10.4628
▁enjoada	-10.4628
▁explico	-10.4628
▁pescoço	-10.4628
▁piscina	-10.4628
▁potencial	-10.4628
▁repente	-10.4628
▁Chama	-10.4628
▁overall	-10.4628
▁tambem	-10.4628
▁costuma	-10.4628
▁keep	-10.4628
▁contacto	-10.4628
▁esquerdo	-10.4628
▁formula	-10.4628
▁naquela	-10.4628
bnb	-10.4628
▁regra	-10.4628
▁sonhei	-10.4628
▁Xana	-10.4628
▁metade	-10.4628
▁something	-10.4628
▁viagens	-10.4628
▁kiss	-10.4628
▁cheiro	-10.4629
▁acertar	-10.4629
▁stalker	-10.4629
▁Miguel	-10.4629
▁Okaaaay	-10.4629
▁chateado	-10.4629
▁please	-10.4629
▁triggered	-10.463
▁expressão	-10.463
▁espere	-10.463
▁recente	-10.463
▁Omw	-10.4631
▁mds	-10.4631
▁mamas	-10.4632
▁copo	-10.4633
▁chinesa	-10.4637
▁bicicleta	-10.4638
▁yourself	-10.4638
▁fizemos	-10.4638
▁puseste	-10.4639
▁estúpida	-10.4639
▁apresentação	-10.464
▁only	-10.464
▁white	-10.4641
▁fingir	-10.4641
▁gostavas	-10.4642
▁gelo	-10.4642
▁vinha	-10.4645
▁alarme	-10.4646
▁calma	-10.4646
▁them	-10.4648
▁Foto	-10.4651
▁Fe	-10.4653
▁play	-10.4653
▁abril	-10.4654
;__	-10.4654
▁Yess	-10.4656
▁identificar	-10.4659
▁aplicação	-10.466
▁chegava	-10.4663
▁torna	-10.4666
▁ligada	-10.4668
▁esquecer	-10.4669
photos	-10.4671
▁ligou	-10.4675
▁sofrer	-10.4681
▁casamento	-10.469
▁Aproveita	-10.4698
▁game	-10.4705
▁Vale	-10.4706
▁bonitas	-10.4709
▁mia	-10.4726
▁vermos	-10.4731
▁estivemos	-10.4739
▁talk	-10.474
48	-10.4741
▁Opaaaa	-10.4742
▁Bu	-10.476
▁Repara	-10.4768
▁daí	-10.4772
▁lhes	-10.4775
▁Bo	-10.4777
▁acordaste	-10.4779
▁bate	-10.4796
gem	-10.4809
▁didn	-10.4811
▁responde	-10.4814
▁comido	-10.4827
▁tios	-10.4836
▁daqueles	-10.4847
30?	-10.4859
▁care	-10.4862
▁brancas	-10.4883
▁Cor	-10.4888
▁mandares	-10.4901
▁ideias	-10.4915
74	-10.4921
▁Di	-10.4931
nic	-10.4942
▁sen	-10.4943
▁grandes	-10.4958
itar	-10.4968
▁Of	-10.4996
/10	-10.5016
tado	-10.5016
▁dormes	-10.5026
▁estará	-10.5053
cos	-10.5055
ugh	-10.5073
▁parecem	-10.5095
95	-10.5096
▁giras	-10.5101
▁Leva	-10.5112
lbum	-10.5113
▁valor	-10.5118
rom	-10.5127
my	-10.5143
red	-10.5145
mina	-10.5152
sss	-10.5154
▁ficha	-10.5157
▁Man	-10.5164
uc	-10.5165
org	-10.5168
▁fechado	-10.5169
▁comentário	-10.5169
▁dream	-10.5172
▁cos	-10.5172
▁team	-10.5178
net	-10.52
rry	-10.5206
alha	-10.5214
▁daquele	-10.522
▁Sabe	-10.5226
▁repara	-10.5227
mor	-10.525
▁Ayy	-10.5254
▁dedos	-10.5257
▁respondi	-10.5267
▁has	-10.5279
inhas	-10.5286
▁vesti	-10.5298
ze	-10.5305
▁envi	-10.531
De	-10.5356
▁encomenda	-10.5364
▁sound	-10.537
▁youuu	-10.5378
▁Prefer	-10.5391
▁Enganei	-10.5397
▁Benfica	-10.5397
▁Esquece	-10.5397
▁Infelizmente	-10.5397
▁Primeiro	-10.5397
▁calendário	-10.5397
▁direction	-10.5397
▁escolhi	-10.5397
▁específico	-10.5397
▁feriado	-10.5397
▁janeiro	-10.5397
▁power	-10.5397
▁pânico	-10.5397
▁study	-10.5397
▁velocidade	-10.5397
▁duplo	-10.5397
▁Eheh	-10.5397
▁Help	-10.5397
▁indeed	-10.5397
▁myself	-10.5397
▁Comecei	-10.5397
▁resoluções	-10.5397
▁direto	-10.5397
▁Shut	-10.5397
▁Babe	-10.5397
▁Both	-10.5397
track	-10.5398
▁enunciado	-10.5398
▁comentar	-10.5398
▁spam	-10.5398
▁comprido	-10.5398
▁errar	-10.5398
▁antiga	-10.5398
▁habituada	-10.5398
▁pulso	-10.5398
▁better	-10.5398
▁Cool	-10.5398
▁Coolio	-10.5398
▁sabor	-10.5398
▁divertido	-10.5398
▁padrinho	-10.5399
▁preparada	-10.5399
▁Maaaas	-10.5399
▁tentei	-10.5399
natomia	-10.54
▁atrasada	-10.54
▁explica	-10.54
▁ponte	-10.5401
▁próprio	-10.5401
▁peito	-10.5401
▁explicações	-10.5402
▁entrecampos	-10.5402
▁cancelar	-10.5402
▁chatear	-10.5402
▁oral	-10.5402
▁organizar	-10.5404
▁Sexta	-10.5405
:20	-10.5405
▁mude	-10.5406
▁descer	-10.5407
▁sorrir	-10.5407
▁irritada	-10.5407
▁reparado	-10.5407
▁gotta	-10.5408
▁despedir	-10.5409
▁deixei	-10.541
▁morreu	-10.5411
▁download	-10.5414
▁world	-10.5414
▁bolo	-10.5415
▁Fez	-10.5416
▁say	-10.542
▁começo	-10.542
▁call	-10.5424
▁Falamos	-10.5424
▁self	-10.5425
▁acreditar	-10.5425
ios	-10.5426
▁Uhhh	-10.5427
▁parou	-10.543
▁apresentar	-10.5432
▁Mil	-10.5432
▁desconto	-10.5433
▁avisado	-10.5436
▁Gostaste	-10.5441
▁lucky	-10.5445
▁Dava	-10.5446
▁jo	-10.5447
▁lava	-10.5453
▁Escolhe	-10.5453
▁comia	-10.5457
▁day	-10.5458
▁Tentar	-10.5462
▁segundos	-10.5469
▁professores	-10.548
▁transportes	-10.5482
▁Hmmmmm	-10.5498
60	-10.5501
▁mad	-10.5502
▁him	-10.5512
▁rica	-10.5516
▁acomp	-10.5531
▁dissesse	-10.5533
▁cons	-10.5544
sign	-10.5544
▁26	-10.555
▁páginas	-10.5558
uuuu	-10.5564
▁lot	-10.5565
▁marcado	-10.5567
time	-10.5568
▁mu	-10.5571
ações	-10.5588
▁fe	-10.5593
OU	-10.5601
TO	-10.561
▁usares	-10.5612
vou	-10.5619
▁comemos	-10.5626
▁Aaaaah	-10.5627
▁ob	-10.564
min	-10.5652
▁ouve	-10.5655
▁opa	-10.5661
▁rir	-10.5663
ites	-10.567
▁fãs	-10.5673
▁certas	-10.5673
rar	-10.5705
ssemos	-10.5712
low	-10.572
▁pareceu	-10.5724
▁pal	-10.573
▁destas	-10.5754
▁over	-10.5771
▁youuuu	-10.5781
ap	-10.5788
▁ME	-10.579
▁tap	-10.5794
▁beijos	-10.5809
ally	-10.5814
▁defini	-10.5818
▁thought	-10.5828
agem	-10.5846
▁oportunidades	-10.5849
▁aw	-10.5855
▁pic	-10.5857
ob	-10.5879
▁EST	-10.5881
ás	-10.5892
▁exp	-10.5905
▁lit	-10.5928
▁car	-10.5931
▁últimas	-10.5932
▁tell	-10.5981
▁planos	-10.5988
▁preta	-10.5992
enter	-10.6028
38	-10.6037
▁Ficas	-10.604
^	-10.6051
▁raparigas	-10.6052
23	-10.6056
▁paga	-10.608
▁Okayyy	-10.6086
92	-10.6095
💖	-10.6098
07	-10.61
▁Ra	-10.6111
▁Pe	-10.6114
▁cha	-10.612
▁by	-10.6123
tica	-10.6125
starei	-10.6126
~	-10.6143
▁tru	-10.6144
point	-10.6146
fazer	-10.615
porque	-10.6152
hhhhh	-10.6152
▁awake	-10.6154
▁Dis	-10.6156
hich	-10.616
▁Ansios	-10.6161
62	-10.6164
....	-10.6173
umb	-10.6178
.......	-10.6179
▁vemo	-10.6204
and	-10.6205
ww	-10.6207
▁pergunto	-10.6208
▁interessa	-10.6211
▁pede	-10.6211
▁eheheh	-10.6213
▁despach	-10.6214
▁toque	-10.6218
▁facil	-10.6226
▁atraso	-10.6227
inguém	-10.623
▁Diverte	-10.6231
▁Prepara	-10.6231
▁séria	-10.6231
▁Ajuda	-10.6231
▁Anurag	-10.6231
▁Arroz	-10.6231
▁Coitada	-10.6231
▁Descobri	-10.6231
▁Gulbenkian	-10.6231
▁NÃO	-10.6231
▁Patrícia	-10.6231
▁Please	-10.6231
▁Sérgio	-10.6231
▁aborrecido	-10.6231
▁acompanhar	-10.6231
▁anestesia	-10.6231
▁aparelho	-10.6231
▁apontamentos	-10.6231
▁bochecha	-10.6231
▁chorei	-10.6231
▁curiosidade	-10.6231
▁demasiada	-10.6231
▁drunk	-10.6231
▁energy	-10.6231
▁escuro	-10.6231
▁exagero	-10.6231
▁fodido	-10.6231
▁grávida	-10.6231
▁impressão	-10.6231
▁incríveis	-10.6231
▁pequenina	-10.6231
▁pílula	-10.6231
▁saudável	-10.6231
▁supermercado	-10.6231
▁televisão	-10.6231
▁xixi	-10.6231
▁óbvio	-10.6231
▁Potter	-10.6231
▁chinês	-10.6231
▁maybe	-10.6231
▁nojenta	-10.6231
▁Almost	-10.6231
▁exato	-10.6231
▁Coisa	-10.6231
▁emotional	-10.6231
▁sebenta	-10.6231
▁stop	-10.6231
▁count	-10.6231
▁fogo	-10.6231
▁Agree	-10.6231
▁punha	-10.6231
▁Buonanotte	-10.6231
▁reler	-10.6231
▁Step	-10.6231
▁gross	-10.6231
▁noutra	-10.6231
▁Ciao	-10.6231
▁desenho	-10.6231
▁Pussy	-10.6231
cabámos	-10.6231
▁convém	-10.6231
▁peixe	-10.6232
▁centro	-10.6232
▁Espere	-10.6232
▁Ouvi	-10.6232
▁light	-10.6232
▁mande	-10.6232
▁desejo	-10.6232
▁Passo	-10.6232
▁lento	-10.6233
▁inscrever	-10.6233
▁Pls	-10.6234
▁cabo	-10.6234
▁badminton	-10.6235
▁caralho	-10.6235
▁realidade	-10.6235
▁anal	-10.6236
▁Começo	-10.6236
ocês	-10.6236
????	-10.6237
▁ligação	-10.6238
▁contei	-10.6238
▁adse	-10.6239
▁after	-10.6239
▁jk	-10.624
▁visitar	-10.6241
▁positivo	-10.6241
▁pintar	-10.6241
▁atrasar	-10.6242
▁caloiros	-10.6242
▁sapatilhas	-10.6242
▁pedido	-10.6242
▁preocupado	-10.6244
▁adicionar	-10.6244
▁bruno	-10.6247
▁aquecer	-10.6247
▁significado	-10.6248
▁pediu	-10.6253
▁controlar	-10.6256
▁💓	-10.6256
▁Cá	-10.6261
▁acabaste	-10.6262
ossil	-10.6262
▁almoças	-10.6262
▁tiny	-10.6265
▁tirado	-10.6268
▁pedem	-10.627
▁Pro	-10.6271
▁dormiste	-10.6271
▁Misso	-10.6272
▁tirou	-10.6274
▁tomo	-10.6284
ip	-10.6288
torrent	-10.6295
▁instagram	-10.6301
▁conhecia	-10.6303
▁chaves	-10.6303
▁story	-10.6309
▁aceitar	-10.6312
▁ambos	-10.6316
sk	-10.6317
▁later	-10.6319
▁media	-10.632
▁conheces	-10.632
▁hey	-10.6328
▁dei	-10.6329
▁alterar	-10.6342
▁log	-10.6343
▁Muitas	-10.6344
▁bela	-10.6351
yp	-10.6354
▁entrei	-10.6356
▁today	-10.6362
▁fix	-10.6367
poupar	-10.6367
▁mentira	-10.6384
▁lábios	-10.6386
▁crianças	-10.6386
cima	-10.6387
▁away	-10.6391
▁Entra	-10.6398
▁acordas	-10.6399
▁consigas	-10.6406
▁data	-10.642
▁other	-10.6444
ood	-10.6476
▁demore	-10.6479
recia	-10.6482
▁cal	-10.6484
EN	-10.6492
▁durar	-10.6498
▁Hellooo	-10.6503
▁they	-10.6508
▁torn	-10.6511
▁aguentava	-10.6525
dia	-10.653
▁hmmm	-10.6537
▁DE	-10.654
09	-10.6545
ooooo	-10.6561
bu	-10.6562
▁pedi	-10.657
▁posto	-10.6572
▁toca	-10.6572
▁pensares	-10.6579
▁Cust	-10.6582
dores	-10.6589
▁dis	-10.6591
▁musicas	-10.6596
ntro	-10.66
ER	-10.6606
▁doce	-10.6613
▁Volta	-10.6621
bar	-10.6634
▁lembra	-10.6641
▁Fod	-10.6644
01	-10.6656
▁Niceeee	-10.6658
nais	-10.6659
▁things	-10.666
/7	-10.6688
ace	-10.6703
▁cuddles	-10.6724
▁passas	-10.6749
ant	-10.6754
▁Yaaaaa	-10.6764
zes	-10.6768
wn	-10.6792
▁vás	-10.6819
▁Ye	-10.6837
▁comboios	-10.6838
▁Seem	-10.6856
▁apanha	-10.6863
men	-10.6869
▁question	-10.6874
▁conv	-10.6875
lá	-10.6876
▁reserva	-10.688
tic	-10.6882
▁build	-10.6889
▁Dig	-10.6908
▁bebida	-10.6911
app	-10.6912
▁junto	-10.6916
▁Al	-10.6943
▁Deix	-10.6956
▁Ju	-10.6957
esta	-10.6958
▁aguenta	-10.7016
ause	-10.7016
▁new	-10.7029
▁masturba	-10.7032
ries	-10.7036
▁said	-10.704
▁partilha	-10.7049
42	-10.7055
já	-10.7055
story	-10.7056
ber	-10.7059
var	-10.707
lista	-10.7078
▁bebi	-10.7088
▁morri	-10.7093
▁varia	-10.7104
▁acredita	-10.7107
Não	-10.7108
▁caga	-10.7114
▁arranjo	-10.7116
▁niceee	-10.7129
▁secar	-10.7133
elefon	-10.7136
▁Nooo	-10.7139
▁safe	-10.7139
▁Percebe	-10.714
▁Quinta	-10.714
▁Física	-10.714
▁Voltei	-10.714
▁Where	-10.714
▁almofada	-10.714
▁apontar	-10.714
▁comprimido	-10.714
▁debaixo	-10.714
▁distância	-10.714
▁imagino	-10.714
▁impressionante	-10.714
▁kidding	-10.714
▁memória	-10.714
▁miúda	-10.714
▁opinião	-10.714
▁overthink	-10.714
▁pesquisar	-10.714
▁polícia	-10.714
▁probably	-10.714
▁propósito	-10.714
▁rotina	-10.714
▁spoil	-10.714
▁streak	-10.714
▁upload	-10.714
▁animação	-10.714
▁pressure	-10.714
▁bigode	-10.714
▁nojento	-10.714
▁scared	-10.714
▁Cutie	-10.714
▁Hugo	-10.714
▁Proud	-10.714
▁Sobre	-10.714
▁multa	-10.714
▁partiu	-10.714
▁yey	-10.714
▁Tanto	-10.714
▁random	-10.714
▁conscious	-10.714
▁equivalente	-10.714
▁abraço	-10.714
▁documento	-10.714
▁amanha	-10.714
▁prédio	-10.714
▁Oops	-10.714
▁stokes	-10.714
▁Alrighttt	-10.714
▁mirror	-10.714
▁presente	-10.714
▁Schroiff	-10.714
▁engana	-10.714
▁lidar	-10.714
▁preferência	-10.714
▁Parecia	-10.714
▁escrito	-10.714
▁intenção	-10.714
▁who	-10.714
lieve	-10.714
▁baile	-10.714
▁receio	-10.714
▁teóricas	-10.714
▁Daaaaamn	-10.714
▁She	-10.7141
▁haja	-10.7141
▁tease	-10.7141
▁ahhh	-10.7141
▁phi	-10.7141
▁obrigado	-10.7141
▁Tirso	-10.7141
▁santo	-10.7141
▁prima	-10.7141
▁viesse	-10.7141
▁sentar	-10.7141
▁buço	-10.7142
▁votar	-10.7142
▁joke	-10.7142
▁Tentei	-10.7142
▁Juro	-10.7142
▁Bitch	-10.7142
▁menorca	-10.7142
▁turma	-10.7142
▁making	-10.7142
▁barco	-10.7143
▁happening	-10.7144
▁bien	-10.7144
▁bêbado	-10.7144
▁hambúrguer	-10.7144
▁parecida	-10.7144
▁necessidade	-10.7145
▁kit	-10.7145
▁custou	-10.7145
onsigo	-10.7145
▁menor	-10.7146
▁wink	-10.7146
▁liguei	-10.7147
▁combinamos	-10.7147
▁Chu	-10.7147
▁programação	-10.7147
▁Sadly	-10.715
▁continue	-10.7152
▁preservativos	-10.7152
▁perdido	-10.7154
▁sabado	-10.7154
▁importantes	-10.7155
▁main	-10.7155
▁participar	-10.7156
▁2015	-10.7156
▁confi	-10.7157
▁combinar	-10.7157
▁dividir	-10.716
▁original	-10.716
▁offline	-10.716
▁💞	-10.716
▁Okkkk	-10.7162
▁massagem	-10.7162
▁total	-10.7163
▁Ahahahahaha	-10.7166
▁piso	-10.7166
▁sadly	-10.7166
▁eletro	-10.717
=0&	-10.7171
▁sul	-10.7173
▁andava	-10.7177
▁entrou	-10.7178
▁MC	-10.7179
▁Jo	-10.7183
▁Ofc	-10.7184
▁maca	-10.7187
▁cadeiras	-10.7187
▁those	-10.7189
▁trabalha	-10.719
▁experimentei	-10.7192
▁Almoça	-10.7195
▁^	-10.7208
▁peso	-10.7208
cc	-10.7213
▁mandava	-10.7215
▁chegamos	-10.7226
qb	-10.7227
▁Bebe	-10.7229
▁compraste	-10.7233
▁vindo	-10.724
▁distrair	-10.7245
▁candidatar	-10.7248
▁percebido	-10.7251
▁acabaram	-10.7255
▁leave	-10.7277
▁mac	-10.7284
▁piores	-10.7286
rás	-10.7292
▁relativa	-10.7301
▁secreta	-10.7301
▁folhas	-10.731
▁preste	-10.7326
hc	-10.734
▁Now	-10.7341
▁cala	-10.7348
▁fan	-10.7353
▁voltares	-10.7362
zy	-10.7383
morei	-10.7389
the	-10.7405
jc	-10.7421
▁bife	-10.7423
▁Usa	-10.7459
AS	-10.7459
▁chat	-10.7468
ure	-10.7487
▁mel	-10.7512
57	-10.7525
▁giros	-10.7528
▁precisavas	-10.7543
ind	-10.7552
▁conquista	-10.7553
50€	-10.7553
gio	-10.7555
▁andas	-10.7572
▁cap	-10.7587
DE	-10.759
▁Estudar	-10.7597
▁entra	-10.7618
▁aproveit	-10.7627
uch	-10.7648
ness	-10.7653
▁novos	-10.768
94	-10.7682
▁levas	-10.7689
▁mem	-10.7705
inhos	-10.7707
▁acorda	-10.7715
eio	-10.7721
chei	-10.7726
HE	-10.7728
▁fizere	-10.7747
▁namorados	-10.7756
#	-10.7764
▁chate	-10.7769
▁grav	-10.7772
ue	-10.7777
▁ho	-10.7783
▁olhei	-10.7792
ja	-10.7823
asse	-10.7825
=6	-10.7826
mp	-10.7827
uuu	-10.7852
▁seu	-10.7854
▁sub	-10.7874
OR	-10.79
▁fizesse	-10.7905
▁venha	-10.7907
▁aberto	-10.791
▁palavra	-10.7912
▁ur	-10.7929
▁pagas	-10.7932
ec	-10.7936
▁Repar	-10.7946
corrido	-10.7952
▁part	-10.7953
ger	-10.7966
7€	-10.7989
▁sup	-10.7996
ilha	-10.8023
instagram	-10.8055
▁sonha	-10.806
entes	-10.8062
personal	-10.8066
ix	-10.8066
gb	-10.8068
▁Acredit	-10.8071
▁presta	-10.808
estou	-10.8089
▁adormece	-10.8089
▁Dormi	-10.8097
hahahahah	-10.8101
quei	-10.8102
)=	-10.8106
â	-10.811
▁long	-10.811
ches	-10.8119
:50	-10.8128
✊	-10.8134
▁inicial	-10.8135
▁she	-10.8135
▁next	-10.8136
inicia	-10.8139
$	-10.814
▁agradeci	-10.814
▁Bruno	-10.814
▁Demasiado	-10.814
▁Percebo	-10.814
▁Pessoalmente	-10.814
▁Quarta	-10.814
▁Robin	-10.814
▁YouTube	-10.814
▁aborrecida	-10.814
▁apareça	-10.814
▁biblioteca	-10.814
▁complicada	-10.814
▁creepy	-10.814
▁crítico	-10.814
▁difíceis	-10.814
▁fevereiro	-10.814
▁gameboy	-10.814
▁human	-10.814
▁instrutor	-10.814
▁juntar	-10.814
▁leggings	-10.814
▁nintendo	-10.814
▁núcleo	-10.814
▁portátil	-10.814
▁preguiçosa	-10.814
▁rapidamente	-10.814
▁responda	-10.814
▁retribuir	-10.814
▁sagres	-10.814
▁sugestão	-10.814
▁tardar	-10.814
▁trânsito	-10.814
▁ultimo	-10.814
▁ângulo	-10.814
▁😞😞	-10.814
▁😭😭	-10.814
☹	-10.814
🙁	-10.814
▁azeite	-10.814
▁curiosa	-10.814
▁jantei	-10.814
▁simpson	-10.814
▁tabela	-10.814
[	-10.814
▁Principal	-10.814
▁burro	-10.814
▁consola	-10.814
▁errada	-10.814
▁green	-10.814
▁pomada	-10.814
▁rapido	-10.814
▁Badumtz	-10.814
▁Responde	-10.814
▁cutie	-10.814
▁escrevi	-10.814
▁esquerda	-10.814
▁ikea	-10.814
▁inteira	-10.814
▁Siiiim	-10.814
▁banco	-10.814
▁engano	-10.814
▁enorme	-10.814
▁andré	-10.814
▁ausente	-10.814
▁Inês	-10.814
▁largo	-10.814
▁apanho	-10.814
▁indiano	-10.814
▁maquilhagem	-10.814
▁almoçamos	-10.814
▁personagem	-10.814
▁close	-10.814
▁conjunto	-10.814
▁nvm	-10.814
▁YOU	-10.814
▁orgas	-10.814
▁macacão	-10.814
▁manteiga	-10.814
▁agree	-10.814
▁delegados	-10.814
▁guy	-10.814
▁QA	-10.814
▁beans	-10.814
php	-10.814
▁molhada	-10.814
▁condiç	-10.814
▁rapar	-10.8141
▁demonstração	-10.8141
▁gorda	-10.8141
product	-10.8141
▁ponha	-10.8141
▁shave	-10.8141
▁Entao	-10.8141
▁laser	-10.8141
▁alone	-10.8141
▁informar	-10.8141
▁fit	-10.8141
▁queiras	-10.8142
▁Roma	-10.8142
▁pudesse	-10.8142
▁tinder	-10.8142
▁sexual	-10.8142
▁estupida	-10.8142
▁ahahahha	-10.8142
▁Perdi	-10.8143
▁kyl	-10.8143
▁Lê	-10.8144
▁relembrar	-10.8144
▁postal	-10.8144
▁beira	-10.8144
▁apanhei	-10.8144
▁sinta	-10.8145
▁morena	-10.8145
▁Cascais	-10.8145
▁estacionamento	-10.8145
▁Pede	-10.8145
▁qualidade	-10.8146
▁especificamente	-10.8146
▁joão	-10.8146
fenix	-10.8147
▁peça	-10.8147
▁nacional	-10.8148
▁minima	-10.8148
▁shame	-10.8149
54	-10.815
▁5€	-10.8151
▁correio	-10.8152
poca	-10.8152
▁full	-10.8152
▁modelo	-10.8152
schroiff	-10.8154
▁recebeu	-10.8154
▁apetecia	-10.8156
▁alemão	-10.816
▁recebeste	-10.816
▁esquecido	-10.8164
▁comprado	-10.8166
▁pesada	-10.8166
▁cortei	-10.817
▁episódios	-10.8172
▁saímos	-10.8173
ciclo	-10.8177
YP	-10.8177
▁puta	-10.8177
▁💙	-10.818
▁waiting	-10.8183
▁decidido	-10.8183
▁fria	-10.8184
▁encomendar	-10.8184
▁suc	-10.8184
▁ajudava	-10.8185
▁passada	-10.8187
▁ily	-10.8188
▁stresses	-10.819
ense	-10.8196
▁Massa	-10.8199
▁basta	-10.8199
▁cola	-10.82
▁Decidi	-10.82
ijo	-10.82
▁gostado	-10.8205
▁ligado	-10.8206
▁|	-10.8208
nj	-10.8209
▁buéeee	-10.8212
▁auto	-10.8212
▁considera	-10.8237
▁point	-10.8244
▁caí	-10.8244
▁decidiu	-10.8247
Co	-10.8248
▁lindos	-10.8248
▁Per	-10.825
víamos	-10.8251
▁resumos	-10.8253
▁gostamos	-10.8253
eço	-10.8255
▁cancel	-10.8255
▁modo	-10.826
▁Car	-10.8265
▁jogos	-10.8267
3%	-10.8268
▁Aw	-10.8284
fc	-10.8286
pra	-10.8289
dc	-10.829
▁boo	-10.8293
AD	-10.8295
▁voltou	-10.8318
▁Yaay	-10.832
▁deixe	-10.8322
2=	-10.8327
▁achaste	-10.8329
▁falt	-10.833
▁reprova	-10.8333
za	-10.8341
▁apetecer	-10.8341
sem	-10.8347
bb	-10.8348
▁lembras	-10.8348
▁Yeeee	-10.8356
▁Mar	-10.8359
▁queijo	-10.8365
▁deixas	-10.8368
▁:/	-10.8372
▁Demora	-10.838
▁Fazer	-10.838
▁seleciona	-10.838
son	-10.839
RA	-10.8399
▁gostares	-10.84
ation	-10.841
▁deixam	-10.8433
ramos	-10.8434
▁roubar	-10.8443
▁St	-10.8443
▁easy	-10.8449
▁valer	-10.8457
▁fechados	-10.8458
▁coming	-10.8495
▁Fi	-10.8497
▁vêm	-10.8501
▁FI	-10.8505
▁primeiras	-10.8507
Li	-10.8509
▁Ro	-10.8514
53	-10.8523
HA	-10.8536
rn	-10.8537
▁esc	-10.8543
47	-10.8589
▁Todas	-10.8593
▁tomas	-10.86
▁livres	-10.8616
▁resolv	-10.8625
ren	-10.863
ano	-10.8631
▁livros	-10.8634
▁Sn	-10.8657
▁watch	-10.867
,+	-10.8677
▁seco	-10.8678
▁fossem	-10.8688
dp	-10.8693
jo	-10.8693
▁Yayyy	-10.8698
▁tre	-10.8701
mais	-10.8705
▁youtube	-10.8708
▁qua	-10.8711
AR	-10.8715
ixe	-10.8718
tá	-10.8725
mma	-10.8732
▁pes	-10.8755
vel	-10.8758
tn	-10.876
▁soma	-10.8767
ual	-10.8769
15€	-10.8787
raio	-10.8802
▁bar	-10.8802
▁parado	-10.8808
▁respondes	-10.8825
simulação	-10.883
▁tantos	-10.8851
ía	-10.8865
from	-10.8876
▁lu	-10.891
CA	-10.8911
An	-10.8925
▁ofere	-10.8941
dg	-10.8948
▁demoras	-10.8953
▁nessas	-10.8961
▁dura	-10.8971
▁pint	-10.8975
▁sugeri	-10.8978
tive	-10.8986
lguns	-10.8987
▁preocupa	-10.8995
areço	-10.8999
▁selfie	-10.9008
▁afilhado	-10.9011
tudo	-10.9011
▁merece	-10.9012
▁alg	-10.9013
▁intensa	-10.9014
▁porão	-10.9015
▁consiga	-10.9018
▁página	-10.9019
▁minuto	-10.9028
▁chi	-10.9029
dx	-10.9032
▁sex	-10.9037
vista	-10.9039
▁mat	-10.9048
cial	-10.9057
ama	-10.9092
▁sn	-10.911
▁distrai	-10.9122
▁vive	-10.9124
ela	-10.9135
▁repeti	-10.9147
nio	-10.915
▁cli	-10.9151
▁goza	-10.9163
▁Pod	-10.9164
ft	-10.9182
▁bebe	-10.9201
▁desaparece	-10.9205
bby	-10.9209
▁guia	-10.9215
hahha	-10.9216
......	-10.9217
ível	-10.9229
▁copi	-10.923
▁avança	-10.923
▁experiment	-10.9233
ô	-10.9238
▁comece	-10.9245
adults	-10.925
rocura	-10.9251
]	-10.9251
▁Biológica	-10.9251
▁GONÇALO	-10.9251
▁spider	-10.9251
▁Chegámos	-10.9251
▁Completamente	-10.9251
▁Domingo	-10.9251
▁Erasmus	-10.9251
▁Espanha	-10.9251
▁Experimenta	-10.9251
▁Imitadora	-10.9251
▁Incrível	-10.9251
▁Jesus	-10.9251
▁Niiiice	-10.9251
▁Parabéns	-10.9251
▁Primeira	-10.9251
▁Ridículo	-10.9251
▁Sabias	-10.9251
▁Setúbal	-10.9251
▁Significa	-10.9251
▁Wuuuut	-10.9251
▁amarela	-10.9251
▁antecedência	-10.9251
▁apetite	-10.9251
▁bondage	-10.9251
▁bêbedo	-10.9251
▁cookie	-10.9251
▁cotonete	-10.9251
▁desafio	-10.9251
▁desenhar	-10.9251
▁embarrassing	-10.9251
▁fritas	-10.9251
▁fruta	-10.9251
▁impressive	-10.9251
▁maxilar	-10.9251
▁mcdonalds	-10.9251
▁mecânica	-10.9251
▁palestra	-10.9251
▁perfect	-10.9251
▁promoção	-10.9251
▁puxar	-10.9251
▁rápida	-10.9251
▁santiago	-10.9251
▁school	-10.9251
▁simpática	-10.9251
▁slides	-10.9251
▁vazio	-10.9251
▁árvore	-10.9251
▁Better	-10.9251
▁Goodbye	-10.9251
▁febre	-10.9251
▁hostel	-10.9251
▁raquete	-10.9251
▁sensível	-10.9251
▁style	-10.9251
▁espirra	-10.9251
▁leiria	-10.9251
▁agarrar	-10.9251
▁borla	-10.9251
1&#125;&#123;1-\	-10.9251
▁braga	-10.9251
▁mudou	-10.9251
▁Açores	-10.9251
▁ipad	-10.9251
▁tremer	-10.9251
▁gestão	-10.9251
▁Grey	-10.9251
▁daddy	-10.9251
▁vossa	-10.9251
▁beeeem	-10.9251
▁crown	-10.9251
jpg	-10.9251
▁ginecologista	-10.9251
▁Maaaaas	-10.9251
▁fones	-10.9251
▁informação	-10.9251
▁Labs	-10.9251
▁ieb	-10.9251
▁soundtrack	-10.9251
▁aquecedor	-10.9251
▁deseja	-10.9251
▁martim	-10.9251
▁angst	-10.9251
nstru	-10.9252
▁confiante	-10.9252
▁Sexy	-10.9252
▁adeus	-10.9252
▁fábrica	-10.9252
▁licor	-10.9252
tacional	-10.9252
▁intervalo	-10.9252
▁cera	-10.9252
▁integrais	-10.9252
▁Feel	-10.9252
▁Abre	-10.9252
▁Santo	-10.9252
▁deitei	-10.9252
▁francesinha	-10.9252
▁aparar	-10.9253
▁Uber	-10.9253
▁chair	-10.9253
▁bolacha	-10.9253
▁inicio	-10.9253
▁Goza	-10.9253
▁António	-10.9253
▁corredor	-10.9253
▁material	-10.9254
▁show	-10.9254
▁falámos	-10.9254
▁else	-10.9255
▁Meeeesmo	-10.9255
▁padr	-10.9255
▁presidente	-10.9256
▁público	-10.9256
▁planeado	-10.9256
quina	-10.9256
▁desconfortável	-10.9257
▁necessariamente	-10.9257
▁Whaaaa	-10.9257
▁word	-10.9257
▁Cho	-10.9257
guest	-10.9257
▁feia	-10.9258
▁parque	-10.9259
culos	-10.9259
▁empregada	-10.926
▁peço	-10.926
▁verificar	-10.9261
▁atum	-10.9261
▁Bad	-10.9261
▁ocupada	-10.9262
▁renda	-10.9263
▁esque	-10.9264
▁pediste	-10.9265
▁paralis	-10.9266
__=	-10.9266
▁acidente	-10.9266
▁Menorca	-10.9266
▁verdadeiro	-10.9268
▁paz	-10.9269
▁reconhece	-10.927
▁texto	-10.927
▁falava	-10.927
▁dica	-10.9271
itch	-10.9271
▁morta	-10.9273
▁prato	-10.9274
▁Chilla	-10.9275
▁saíste	-10.9277
▁Yeahhhh	-10.9279
▁falas	-10.9279
▁duro	-10.9279
smo	-10.928
▁finally	-10.928
▁Aconteceu	-10.9291
▁notícias	-10.9294
▁lágrimas	-10.9294
▁sobrancelhas	-10.9294
▁percebeu	-10.9295
▁conquistar	-10.9296
▁nojo	-10.9297
▁Noooo	-10.9299
▁formação	-10.93
▁COM	-10.9301
tivamente	-10.9304
▁longo	-10.9305
scar	-10.9306
▁haveria	-10.9307
▁ouviste	-10.9307
▁body	-10.9308
▁envolve	-10.9308
▁forno	-10.9309
▁Ahahahahahah	-10.9313
SO	-10.9324
▁faltava	-10.9326
▁land	-10.9329
08	-10.9329
▁find	-10.933
▁conseguem	-10.9331
▁almocei	-10.9337
▁nooo	-10.9341
gir	-10.9345
▁Pics	-10.9347
87	-10.9349
▁Cenas	-10.935
▁conseguido	-10.9354
▁apaga	-10.9362
▁conseguiste	-10.9368
▁Comia	-10.9379
▁casal	-10.9383
▁tf	-10.9384
▁poderia	-10.939
▁fazias	-10.9392
▁belo	-10.9393
which	-10.9395
▁Estavam	-10.9399
▁decente	-10.9404
▁pó	-10.9412
▁Cl	-10.9413
iros	-10.9414
▁Tchiiii	-10.9418
fla	-10.9426
▁chumbar	-10.9434
▁sandes	-10.9435
▁spotify	-10.944
▁mari	-10.9448
▁corda	-10.9448
▁sentires	-10.9459
▁afk	-10.9463
▁Uhhhh	-10.9467
▁mentir	-10.9482
▁band	-10.9485
%20	-10.9491
▁even	-10.9492
▁poderes	-10.9507
▁daquilo	-10.9514
ME	-10.9516
▁fizesses	-10.9522
▁Bue	-10.9533
▁solo	-10.9544
▁devolve	-10.9547
posta	-10.9555
▁pics	-10.9585
▁dormia	-10.9587
▁serve	-10.96
nada	-10.96
anana	-10.9602
tim	-10.9605
erci	-10.9626
bro	-10.9632
lf	-10.9665
▁Chi	-10.9677
▁meter	-10.9678
AQ	-10.9684
▁sugerir	-10.9696
▁pedia	-10.9698
▁deram	-10.9707
▁At	-10.9708
▁filhos	-10.9726
▁Siiiii	-10.9727
▁Gu	-10.9727
den	-10.9732
▁Lembra	-10.9744
▁respons	-10.9748
▁fizer	-10.9753
▁sorryyyy	-10.9761
▁marcas	-10.9763
▁her	-10.9767
▁braços	-10.9785
▁ajudas	-10.9786
mn	-10.9812
▁Lo	-10.9835
gens	-10.9835
▁Yaaaaay	-10.9837
▁concorda	-10.9857
▁Vo	-10.9864
▁bc	-10.9883
▁does	-10.9892
cção	-10.9939
ntado	-10.996
iiiii	-10.9963
▁(1	-10.9965
▁Acaba	-10.997
ij	-10.998
▁chegues	-10.9997
▁Cas	-11.0031
03	-11.0042
▁Falar	-11.0052
▁che	-11.0052
rid	-11.0055
=7	-11.0068
Se	-11.0076
▁corri	-11.008
▁acer	-11.0091
py	-11.0103
cada	-11.0131
▁Res	-11.0132
ças	-11.0141
tivo	-11.0151
1-	-11.0158
AL	-11.0174
▁escreve	-11.0175
avas	-11.0181
tico	-11.0181
▁matar	-11.0189
xts	-11.0203
TE	-11.0218
▁Alg	-11.0219
▁primeiros	-11.0226
sure	-11.0234
▁pés	-11.0241
▁happen	-11.0254
▁aceita	-11.0255
▁Senti	-11.0256
▁antigo	-11.0258
▁saiba	-11.0265
▁criança	-11.0268
▁lábio	-11.0268
▁folha	-11.027
▁Gosta	-11.027
.........	-11.0271
▁Cara	-11.0284
88	-11.0309
▁voos	-11.0315
▁tri	-11.0317
OS	-11.0318
isto	-11.032
tle	-11.0325
▁means	-11.0338
▁smart	-11.0367
▁aprendi	-11.0372
▁Mor	-11.0384
▁Val	-11.0396
nk	-11.0398
▁morre	-11.0401
ncontrei	-11.0403
stranho	-11.0405
▁45	-11.0408
aaaaay	-11.0409
&#064;	-11.0413
|	-11.0416
▁custar	-11.0416
41	-11.0423
▁cursos	-11.0431
▁Olaaaa	-11.0444
IA	-11.0456
▁hmm	-11.0462
▁hug	-11.0468
▁Chill	-11.0479
▁demoro	-11.0479
▁entrega	-11.0483
▁Tchiii	-11.0483
▁Aaaaahhh	-11.0483
▁acabe	-11.0486
424	-11.0491
ward	-11.0494
▁oferecer	-11.0496
▁bet	-11.0497
▁😢😢	-11.05
&#125;	-11.05
▁afeta	-11.05
rarbg	-11.0501
┻	-11.0501
▁Apanhei	-11.0501
▁Apetece	-11.0501
▁Continuo	-11.0501
▁Facebook	-11.0501
▁Freitas	-11.0501
▁Fácil	-11.0501
▁Happy	-11.0501
▁Jorge	-11.0501
▁Nãaaaao	-11.0501
▁Wuuut	-11.0501
▁afilhada	-11.0501
▁agradeço	-11.0501
▁amarelo	-11.0501
▁application	-11.0501
▁boxers	-11.0501
▁brufen	-11.0501
▁buraco	-11.0501
▁cocó	-11.0501
▁convidada	-11.0501
▁cozida	-11.0501
▁dançar	-11.0501
▁dezembro	-11.0501
▁ecrã	-11.0501
▁episodio	-11.0501
▁espanhol	-11.0501
▁esquisita	-11.0501
▁farmácia	-11.0501
▁horrivel	-11.0501
▁indiferente	-11.0501
▁intelectual	-11.0501
▁jesuíta	-11.0501
▁limpeza	-11.0501
▁maçã	-11.0501
▁motivação	-11.0501
▁método	-11.0501
▁netflix	-11.0501
▁obrigatório	-11.0501
▁perfil	-11.0501
▁polaroid	-11.0501
▁polimi	-11.0501
▁polinómio	-11.0501
▁regularmente	-11.0501
▁relatorio	-11.0501
▁ruído	-11.0501
▁sanita	-11.0501
▁sebastião	-11.0501
▁settled	-11.0501
▁tribunal	-11.0501
▁vergonha	-11.0501
▁😂😂	-11.0501
▁😒😒	-11.0501
ノ	-11.0501
▁armário	-11.0501
▁woman	-11.0501
͡	-11.0501
▁appej	-11.0501
▁before	-11.0501
▁freak	-11.0501
▁money	-11.0501
▁homeless	-11.0501
▁year	-11.0501
▁Entãaaaao	-11.0501
▁Glad	-11.0501
▁fuels	-11.0501
▁mistura	-11.0501
▁when	-11.0501
▁expect	-11.0501
▁secretária	-11.0501
▁shut	-11.0501
▁Fair	-11.0501
▁decisão	-11.0501
▁mouth	-11.0501
▁temperatura	-11.0501
▁negativo	-11.0501
▁change	-11.0501
▁errado	-11.0501
▁errei	-11.0501
80	-11.0501
▁serious	-11.0501
▁worries	-11.0501
▁interesse	-11.0501
▁Again	-11.0501
▁sarcástic	-11.0501
▁batizar	-11.0501
▁lixo	-11.0501
▁cansativo	-11.0501
▁both	-11.0501
▁magnum	-11.0501
▁grau	-11.0501
▁morras	-11.0501
costumo	-11.0501
▁Wooooow	-11.0501
▁cerveja	-11.0501
▁couple	-11.0501
▁upgrade	-11.0501
▁cry	-11.0502
▁apoio	-11.0502
▁ariana	-11.0502
▁medida	-11.0502
▁frustrante	-11.0502
▁apertada	-11.0502
▁pressa	-11.0502
▁pack	-11.0502
▁sweet	-11.0502
▁queixo	-11.0502
▁Pronta	-11.0502
▁delegação	-11.0502
▁chique	-11.0502
▁deitada	-11.0503
▁12:30	-11.0503
▁head	-11.0503
▁Like	-11.0503
▁medir	-11.0503
▁finish	-11.0503
▁😘💕	-11.0503
▁Wink	-11.0503
▁Sorte	-11.0503
▁passadeira	-11.0503
▁soubesse	-11.0504
▁wok	-11.0504
▁dying	-11.0504
▁apertar	-11.0504
▁corações	-11.0504
2016	-11.0504
▁pink	-11.0504
noticia	-11.0504
source	-11.0504
▁Tamb	-11.0505
▁talento	-11.0505
▁Jantar	-11.0505
▁give	-11.0505
▁saíres	-11.0506
▁10:30	-11.0506
▁telefon	-11.0506
▁leio	-11.0506
▁vento	-11.0506
▁viol	-11.0506
▁might	-11.0507
▁filha	-11.0507
▁falso	-11.0507
▁Organiser	-11.0507
▁papa	-11.0507
▁Aero	-11.0508
985	-11.0508
▁player	-11.0508
▁houvesse	-11.0508
▁gravar	-11.0508
▁neb	-11.0508
▁manha	-11.0508
▁estrada	-11.0508
▁Rica	-11.0509
▁barra	-11.0509
:15	-11.051
▁Rita	-11.0511
▁estudei	-11.0511
▁happened	-11.0511
▁terceira	-11.0512
▁trato	-11.0512
▁heart	-11.0513
▁manga	-11.0513
▁Nein	-11.0513
▁roma	-11.0514
▁tight	-11.0514
▁escala	-11.0514
▁privado	-11.0514
▁pasta	-11.0515
▁souberes	-11.0515
▁forever	-11.0517
▁respondido	-11.0517
▁confuso	-11.0518
▁periodo	-11.0518
▁shopping	-11.0519
▁😥	-11.0519
tiva	-11.0519
▁interior	-11.0519
▁receita	-11.0519
▁Super	-11.0519
▁irritado	-11.0519
▁apanhado	-11.0521
▁Sms	-11.0521
▁escond	-11.0522
▁pun	-11.0522
▁ganho	-11.0522
▁disposta	-11.0522
▁perdeu	-11.0523
▁arranjado	-11.0523
▁Awww	-11.0524
▁loss	-11.0525
▁edite	-11.0525
▁musical	-11.0525
▁encher	-11.0526
▁resultar	-11.0527
▁saído	-11.0528
▁fecha	-11.0528
▁Paga	-11.0529
▁risco	-11.0529
ears	-11.0529
▁Nesse	-11.053
▁UM	-11.053
▁rato	-11.0531
▁testar	-11.0532
▁passava	-11.0533
▁perdida	-11.0533
gante	-11.0534
▁pesado	-11.0537
▁domino	-11.0538
apar	-11.0541
▁cadeia	-11.0542
▁colo	-11.0542
▁sentado	-11.0545
▁masturbar	-11.0549
▁parei	-11.0549
▁levei	-11.055
▁fly	-11.0552
▁pensaste	-11.0556
▁pada	-11.0558
▁arraial	-11.0559
▁tentado	-11.0559
▁Fim	-11.0563
eeesmo	-11.0565
▁lemos	-11.0567
▁Aaaah	-11.0567
raí	-11.0568
▁vivo	-11.0571
▁morria	-11.0572
▁Deal	-11.0573
DD	-11.0574
▁Ouve	-11.0578
▁pesa	-11.0578
▁garrafa	-11.058
▁cheirar	-11.058
▁perguntado	-11.0586
▁termo	-11.0588
▁tecas	-11.0589
▁Bro	-11.059
▁provar	-11.0591
▁wa	-11.0607
▁luzes	-11.0611
ying	-11.0621
estar	-11.0628
▁virar	-11.0634
▁apartamento	-11.0635
▁compre	-11.0638
▁dormiu	-11.064
▁ven	-11.0641
▁lentes	-11.0647
▁\	-11.0649
▁decorar	-11.0649
▁Over	-11.0657
▁delay	-11.0666
▁recebes	-11.0666
fica	-11.0668
▁previst	-11.0669
▁ಠ	-11.067
▁andei	-11.0679
▁cansa	-11.0681
ped	-11.069
▁pessoal	-11.0703
ould	-11.0705
▁Ohhhhh	-11.0706
▁poucas	-11.0712
▁happens	-11.0745
mg	-11.0746
▁Trata	-11.0747
▁sur	-11.0747
▁demais	-11.0747
77	-11.075
▁tentas	-11.0769
▁pt	-11.0769
▁Ti	-11.0776
▁intensas	-11.0778
▁guardo	-11.0789
jd	-11.079
▁prob	-11.0796
▁esperava	-11.0799
▁Dar	-11.0804
▁ne	-11.0805
▁mor	-11.0811
LA	-11.0841
▁ignor	-11.0845
▁levares	-11.0854
00000	-11.087
000	-11.0875
XT	-11.0882
▁eight	-11.0884
▁Beij	-11.0903
▁vende	-11.0904
gica	-11.0923
vos	-11.0927
ik	-11.0932
kk	-11.0933
iiiiiii	-11.0939
8%	-11.0946
▁tema	-11.0955
▁quisesses	-11.0978
▁letras	-11.0979
izado	-11.098
▁Yaaas	-11.0986
tável	-11.0988
!3	-11.0988
▁alter	-11.0997
▁ovo	-11.0997
▁passares	-11.1015
▁maus	-11.1017
▁ida	-11.1027
ED	-11.1034
▁velhos	-11.1045
gl	-11.1048
▁dif	-11.1055
▁Ola	-11.1056
roco	-11.1071
ign	-11.108
▁pass	-11.1081
dn	-11.1087
▁Ana	-11.1093
tual	-11.1098
▁Ganh	-11.1101
aaaaahhhh	-11.1143
▁ajudo	-11.1158
▁perde	-11.116
▁resolve	-11.1162
user	-11.1162
▁Omgggg	-11.1171
▁facebook	-11.1191
image	-11.122
▁poucos	-11.1229
vc	-11.1232
▁Omggggg	-11.1234
▁byee	-11.1265
▁cur	-11.1279
lip	-11.1283
ool	-11.1293
▁Hiii	-11.131
lia	-11.1323
▁cai	-11.1323
▁onda	-11.1339
▁Yaaaaaa	-11.1357
1&	-11.1371
eram	-11.1374
TA	-11.1386
sci	-11.14
2%	-11.141
▁estranhos	-11.1418
tri	-11.1441
9%	-11.1448
ahahahahah	-11.1448
▁mental	-11.1469
▁Usas	-11.1478
:30	-11.1486
oricamente	-11.1492
▁AH	-11.1493
▁rouba	-11.1503
▁dares	-11.1521
Pr	-11.1524
ró	-11.1525
OD	-11.1533
way	-11.1573
▁Aaaaahhhh	-11.1576
81	-11.1587
▁niceeee	-11.1598
▁Ki	-11.1612
▁suj	-11.1633
▁concertos	-11.1642
mmmmm	-11.1642
aria	-11.1654
Fals	-11.1667
ef	-11.168
▁negro	-11.1688
wt	-11.1688
▁lin	-11.1689
▁pouca	-11.1692
▁sande	-11.1693
613	-11.1705
▁Comer	-11.1709
▁decora	-11.1719
yyyy	-11.1732
2_	-11.1751
▁magoa	-11.1751
kkkk	-11.1752
▁Che	-11.1774
encial	-11.1778
▁estra	-11.1781
vice	-11.1785
▁Ahahhahah	-11.1786
IN	-11.1788
raça	-11.1791
▁relatórios	-11.1797
▁AI	-11.1816
▁escolhes	-11.1821
▁Okkk	-11.1824
▁sofre	-11.1825
▁maneiras	-11.1825
▁chora	-11.1834
▁Naaaaah	-11.1837
content	-11.1841
BE	-11.1845
▁aprende	-11.1846
grande	-11.1848
euros	-11.1857
fixe	-11.1863
like	-11.1863
eeeesmo	-11.187
▁Algum	-11.1873
▁Caga	-11.1875
▁janta	-11.1876
▁atende	-11.1878
▁joga	-11.1884
night	-11.1884
..........	-11.1896
▁fam	-11.1896
▁ocupa	-11.1904
key	-11.1913
▁volte	-11.1914
▁acorde	-11.1914
▁faca	-11.1916
▁Assum	-11.1923
▁conce	-11.1924
weet	-11.1926
▁movi	-11.1927
▁pensas	-11.1929
▁understand	-11.1929
objetiva	-11.1929
global	-11.1929
▁Concentra	-11.1929
rrumei	-11.1929
╭	-11.1929
╮	-11.1929
▁Agradece	-11.1929
▁Barney	-11.1929
▁Casually	-11.1929
▁Conhec	-11.1929
▁Impressive	-11.1929
▁Levantei	-11.1929
▁Messenger	-11.1929
▁Páscoa	-11.1929
▁Saldanha	-11.1929
▁WhatsApp	-11.1929
▁Wuuuuut	-11.1929
▁already	-11.1929
▁annoying	-11.1929
▁anurag	-11.1929
▁arranje	-11.1929
▁arriscar	-11.1929
▁avisei	-11.1929
▁bikini	-11.1929
▁blood	-11.1929
▁brasileira	-11.1929
▁cabeleireiro	-11.1929
▁cachecol	-11.1929
▁calculadora	-11.1929
▁cardíaco	-11.1929
▁choice	-11.1929
▁dermatologista	-11.1929
▁divirt	-11.1929
▁enjoy	-11.1929
▁fáceis	-11.1929
▁galveias	-11.1929
▁hoodie	-11.1929
▁jacobiana	-11.1929
▁julho	-11.1929
▁legumes	-11.1929
▁possíveis	-11.1929
▁ridiculo	-11.1929
▁scroll	-11.1929
▁sobrinho	-11.1929
▁swipe	-11.1929
▁telemovel	-11.1929
▁tempestade	-11.1929
▁três	-11.1929
▁videochamada	-11.1929
▁volume	-11.1929
▁vomitei	-11.1929
▁welcome	-11.1929
▁wolf	-11.1929
▁álgebra	-11.1929
▁índice	-11.1929
▁óleo	-11.1929
▁úteis	-11.1929
▁Pipoca	-11.1929
▁Yeaaaah	-11.1929
▁alunos	-11.1929
▁always	-11.1929
▁around	-11.1929
▁arruina	-11.1929
▁borrach	-11.1929
▁fault	-11.1929
▁madrinha	-11.1929
▁mijar	-11.1929
▁máscara	-11.1929
▁praticar	-11.1929
▁sortuda	-11.1929
▁through	-11.1929
▁triplo	-11.1929
▁Welcome	-11.1929
▁arranca	-11.1929
▁erraste	-11.1929
▁escorreg	-11.1929
▁imeeeeens	-11.1929
▁kink	-11.1929
▁mudança	-11.1929
▁produto	-11.1929
▁Últim	-11.1929
▁peasy	-11.1929
▁carrinha	-11.1929
▁mousse	-11.1929
▁boleia	-11.193
▁fnac	-11.193
▁nervous	-11.193
▁pré	-11.193
▁trupes	-11.193
▁vetor	-11.193
▁Sucks	-11.193
▁portugueses	-11.193
▁Errei	-11.193
▁Okaaay	-11.193
▁romântico	-11.193
▁whatsapp	-11.193
▁Play	-11.193
▁Torna	-11.193
▁muuuuit	-11.193
▁trajar	-11.193
▁acesso	-11.193
▁nerd	-11.193
▁previsível	-11.193
▁Pausa	-11.193
▁frito	-11.193
▁vidro	-11.193
status	-11.193
▁rebenta	-11.193
▁ingles	-11.193
▁leite	-11.193
▁OMG	-11.193
▁Mini	-11.193
▁joelho	-11.193
▁orgulhoso	-11.193
▁little	-11.193
▁raiz	-11.193
▁Work	-11.193
▁david	-11.193
▁ftw	-11.193
▁:&#039;)	-11.193
▁Christmas	-11.193
zoma	-11.193
▁Turim	-11.193
^2&#125;	-11.193
▁numero	-11.193
▁elevador	-11.193
▁estalar	-11.193
▁decide	-11.193
▁chatice	-11.193
▁ohhh	-11.193
▁$$\	-11.193
▁génio	-11.193
▁Epá	-11.193
▁Congrats	-11.193
▁panquecas	-11.193
▁Carlos	-11.193
▁walk	-11.193
▁sustainable	-11.193
▁lanç	-11.1931
▁basic	-11.1931
▁graça	-11.1931
▁recebo	-11.1931
▁officials	-11.1931
▁depressa	-11.1931
▁preocupações	-11.1931
▁cansaço	-11.1931
odisseias	-11.1931
▁Who	-11.1931
▁saltar	-11.1931
▁após	-11.1931
▁lube	-11.1931
▁funcionou	-11.1931
▁smh	-11.1932
▁parede	-11.1932
▁homens	-11.1932
▁hut	-11.1932
▁makeup	-11.1932
▁vaca	-11.1932
▁baguete	-11.1932
▁inesperado	-11.1932
ible	-11.1933
▁seguidas	-11.1933
▁decido	-11.1933
▁percas	-11.1933
house	-11.1933
▁deitado	-11.1933
▁20:30	-11.1933
▁mancha	-11.1933
▁tried	-11.1934
▁Mona	-11.1934
▁Nossa	-11.1934
▁março	-11.1934
▁uber	-11.1934
▁limpo	-11.1934
▁apertado	-11.1935
▁siso	-11.1935
▁preso	-11.1935
▁Bebi	-11.1935
▁dumb	-11.1936
▁obrigar	-11.1936
▁Belém	-11.1936
▁enganei	-11.1936
▁atrase	-11.1937
▁inside	-11.1937
▁Nintendo	-11.1937
▁capitã	-11.1937
▁sorriso	-11.1937
▁gozo	-11.1938
▁gama	-11.1938
▁Aaaaaahhhhh	-11.1938
▁disponível	-11.1938
uke	-11.1938
▁traz	-11.1938
▁elaborado	-11.1938
proxima	-11.1938
▁Recebeste	-11.1939
iiiiiiiiiiiiiiii	-11.1939
▁Dua	-11.194
▁picar	-11.1942
▁malas	-11.1942
▁Veremos	-11.1942
▁tshirt	-11.1942
▁reparou	-11.1942
▁Saaaame	-11.1942
:35	-11.1942
▁aumentar	-11.1943
▁curva	-11.1943
▁feio	-11.1944
rança	-11.1944
▁fake	-11.1944
land	-11.1944
▁sentimento	-11.1945
▁Ligo	-11.1945
▁cold	-11.1945
▁shot	-11.1946
▁trocado	-11.1946
▁sir	-11.1946
▁Escreve	-11.1946
▁Toca	-11.1946
▁pressiona	-11.1948
▁preocupada	-11.1948
▁nervoso	-11.1948
▁arranjava	-11.1949
▁morte	-11.1949
▁mona	-11.1949
▁levava	-11.1949
▁corrida	-11.195
▁Passei	-11.195
▁pague	-11.195
▁cavalo	-11.195
▁prender	-11.1951
▁reparaste	-11.1951
▁descansada	-11.1951
▁Bol	-11.1951
▁chamou	-11.1951
▁Correção	-11.1953
elho	-11.1954
▁Muda	-11.1954
▁aturar	-11.1954
▁conhecido	-11.1954
▁pato	-11.1954
▁promet	-11.1957
▁demorou	-11.1957
▁indeciso	-11.1959
▁Mata	-11.1959
▁tesla	-11.1959
▁updated	-11.196
▁Conseguiste	-11.196
▁vendo	-11.1963
▁custava	-11.1966
▁maça	-11.1967
JE	-11.1967
▁arranjou	-11.1968
▁hugo	-11.197
▁2°	-11.1971
▁die	-11.1971
yyyyy	-11.1972
▁devolver	-11.1974
▁Bela	-11.1977
▁usado	-11.1978
▁abriu	-11.1979
▁Mando	-11.1983
▁entretanto	-11.1985
▁Mpt	-11.1987
▁bola	-11.1988
▁Corte	-11.1989
uddling	-11.1992
▁snap	-11.1994
MOS	-11.1997
▁aplicar	-11.1998
uuuuck	-11.1999
▁usamos	-11.2
▁pagou	-11.2001
▁controlo	-11.2002
▁Teria	-11.2004
curso	-11.2005
▁tirada	-11.2005
▁sentia	-11.2006
▁deixava	-11.2006
▁trajado	-11.2008
either	-11.2011
▁noob	-11.2013
▁needy	-11.2022
▁boobs	-11.2024
▁compara	-11.2024
▁fech	-11.2028
▁colher	-11.2033
▁Amen	-11.2033
▁They	-11.2036
own	-11.2037
▁depend	-11.2039
side	-11.2039
▁tentou	-11.2041
▁into	-11.2051
▁gg	-11.2054
jw	-11.2057
▁candidato	-11.2057
▁ombros	-11.2061
▁panados	-11.2061
lhões	-11.2067
▁termas	-11.207
▁demonstrar	-11.2072
▁voltava	-11.2074
liga	-11.2074
▁vier	-11.2077
▁Did	-11.208
▁Gonçalooooo	-11.2085
▁~	-11.2086
▁cartas	-11.2088
▁geni	-11.2089
▁There	-11.209
XX	-11.2093
▁créditos	-11.2099
▁teremos	-11.211
▁Demoras	-11.2117
Ya	-11.2122
▁horários	-11.2125
▁fina	-11.2128
▁ba	-11.2131
▁pares	-11.2133
▁saltos	-11.2138
▁Okkkkkk	-11.2153
▁moras	-11.2156
▁comeste	-11.2158
▁havid	-11.2178
▁visses	-11.218
lamento	-11.218
▁Aiiii	-11.218
ismos	-11.2188
▁nasa	-11.2192
▁Talk	-11.2192
▁comum	-11.2195
EU	-11.22
▁Heyo	-11.2203
▁colar	-11.2203
▁acontecem	-11.2205
1_	-11.2206
morro	-11.2209
▁Ted	-11.2209
▁formal	-11.2213
▁saibas	-11.2214
cation	-11.2215
cente	-11.2216
▁cas	-11.2216
bom	-11.2232
▁Ru	-11.2236
nw	-11.2249
▁afilhados	-11.2252
▁saía	-11.2258
not	-11.2259
▁bri	-11.2281
▁move	-11.2284
▁preferi	-11.2285
DV	-11.2286
ian	-11.2289
▁venhas	-11.2291
dio	-11.2308
▁porno	-11.2312
bid	-11.2319
▁conversar	-11.2339
▁correto	-11.2342
▁Casa	-11.2342
▁ovos	-11.2383
LO	-11.2398
=5	-11.24
▁fichas	-11.2408
fin	-11.2421
/17	-11.2421
▁implica	-11.2422
cordaste	-11.2436
▁Gro	-11.2441
fal	-11.2492
▁Ily	-11.2495
▁album	-11.2499
NT	-11.25
pai	-11.2509
onze	-11.2521
▁fartar	-11.2523
rp	-11.2523
ibi	-11.2526
eeeeee	-11.2529
▁Levas	-11.253
▁encontras	-11.253
▁CO	-11.2538
▁suar	-11.2543
Zh	-11.2545
lack	-11.2552
▁Acabar	-11.2572
Id	-11.259
▁ben	-11.2595
5%	-11.2597
▁sc	-11.2608
▁gatos	-11.2608
8.	-11.2617
nel	-11.262
▁mora	-11.2621
ç	-11.2623
▁Y	-11.264
ares	-11.2653
▁ina	-11.2661
▁repo	-11.2672
▁menciona	-11.2679
▁tiras	-11.2685
eiras	-11.2698
EI	-11.2705
▁corresponde	-11.2713
vida	-11.2721
▁rei	-11.2726
▁colegas	-11.2728
▁pri	-11.2732
▁Babyyyy	-11.2733
▁cm	-11.2733
:45	-11.2747
▁oposto	-11.2761
cil	-11.2765
▁tort	-11.2781
dura	-11.2786
▁0,	-11.2818
▁Ganha	-11.282
ior	-11.2821
▁invent	-11.2835
▁respira	-11.2839
IC	-11.2841
▁acen	-11.2842
▁SE	-11.2846
EB	-11.2872
▁compr	-11.2893
▁nasce	-11.2894
▁ni	-11.2906
▁cumpri	-11.2909
usta	-11.2914
▁conhece	-11.2931
▁irem	-11.2933
ban	-11.2937
Di	-11.2937
nO	-11.294
▁concordas	-11.2951
▁X	-11.2953
▁60	-11.2973
))	-11.2982
aaaaaaa	-11.2986
▁Cons	-11.2993
OL	-11.3004
▁diaaaa	-11.3007
▁distraíd	-11.3037
vido	-11.305
ties	-11.3052
▁recebe	-11.3062
▁Doi	-11.3068
▁sobreviv	-11.3079
▁voc	-11.3091
▁bru	-11.3094
▁bif	-11.3112
DI	-11.3121
▁36	-11.3124
kd	-11.3124
▁bug	-11.3136
▁engraçadas	-11.3145
alidade	-11.3148
▁id	-11.3154
LL	-11.3159
▁Esp	-11.3175
▁Sal	-11.318
ggg	-11.3191
Bo	-11.32
79	-11.3215
▁exist	-11.3229
íc	-11.323
bras	-11.3237
58	-11.3247
▁Red	-11.3248
tório	-11.3262
?????	-11.327
uuuuu	-11.3278
gg	-11.3293
▁cat	-11.3298
Fi	-11.3304
morar	-11.3307
3€	-11.3319
▁chumba	-11.332
atura	-11.332
apping	-11.333
▁Deita	-11.333
▁calha	-11.3333
utocarro	-11.3333
▁CA	-11.3336
nga	-11.3337
polic	-11.334
▁cro	-11.3341
lid	-11.3343
▁Explica	-11.3347
▁prioridade	-11.3353
▁salto	-11.3365
▁duvida	-11.3366
▁Muita	-11.3367
▁beijinho	-11.3371
IM	-11.3376
▁troca	-11.3377
▁sleepy	-11.3379
▁terias	-11.3382
▁hell	-11.3382
▁Awwww	-11.3394
▁bomba	-11.34
info	-11.341
▁💜💜	-11.3411
pc	-11.3423
▁visse	-11.3433
▁Yeee	-11.3437
▁NO	-11.3437
inder	-11.3463
▁gen	-11.3477
▁concordar	-11.3483
▁Dizem	-11.3484
▁chu	-11.3487
▁Okkkkk	-11.3488
play	-11.3498
quil	-11.3505
mbora	-11.3505
twitter	-11.3506
💕	-11.351
comprimento	-11.3513
✨	-11.3513
True	-11.3515
body	-11.3516
até	-11.3518
▁conserva	-11.3522
▁Smart	-11.3525
taste	-11.3534
uzinho	-11.3534
▁chin	-11.3535
▁arma	-11.3545
Esta	-11.3545
▁alemã	-11.3546
digo	-11.355
group	-11.3552
mesmo	-11.3555
▁Yeahhh	-11.3558
book	-11.356
▁indecis	-11.3561
▁aquece	-11.3563
▁Nenhum	-11.3566
▁moment	-11.357
▁gel	-11.3573
▁encosta	-11.3573
estetica	-11.3575
▁despe	-11.3578
agra	-11.3579
▁país	-11.358
limp	-11.358
▁record	-11.3582
▁worth	-11.3583
▁concentra	-11.3584
▁Recebe	-11.3585
▁atrav	-11.3586
▁organiz	-11.3586
▁aconteci	-11.3587
▁Aaaaaah	-11.3588
▁Ho	-11.3589
nice	-11.359
▁adivinh	-11.3591
▁Feliz	-11.3591
▁brinc	-11.3592
1&#125;&#123;	-11.3592
ício	-11.3593
▁micro	-11.3593
ferência	-11.3593
Google	-11.3594
______________	-11.3595
uawei	-11.3596
▁Habitua	-11.3596
ecnicamente	-11.3596
primir	-11.3596
samouco	-11.3596
theater	-11.3596
Ó	-11.3596
ʔ	-11.3596
ʕ	-11.3596
ᴥ	-11.3596
–	-11.3596
▁Adormeci	-11.3596
▁Anywho	-11.3596
▁Aviso	-11.3596
▁Barcelona	-11.3596
▁Bárbara	-11.3596
▁Central	-11.3596
▁Claaaaro	-11.3596
▁Cálculo	-11.3596
▁Frango	-11.3596
▁Gameboy	-11.3596
▁Literally	-11.3596
▁Niiiiice	-11.3596
▁Nutella	-11.3596
▁Resolv	-11.3596
▁Savage	-11.3596
▁Videochamada	-11.3596
▁Yoyoyo	-11.3596
▁Zelda	-11.3596
▁aconteça	-11.3596
▁anteontem	-11.3596
▁apelido	-11.3596
▁aprecio	-11.3596
▁artifício	-11.3596
▁asshole	-11.3596
▁attractive	-11.3596
▁automaticamente	-11.3596
▁automático	-11.3596
▁biológico	-11.3596
▁bloqueado	-11.3596
▁bunny	-11.3596
▁básica	-11.3596
▁básico	-11.3596
▁bêbada	-11.3596
▁caderno	-11.3596
▁castanho	-11.3596
▁chop	-11.3596
▁cliché	-11.3596
▁clássico	-11.3596
▁committe	-11.3596
▁condicionado	-11.3596
▁conquistei	-11.3596
▁contexto	-11.3596
▁convosco	-11.3596
▁courgette	-11.3596
▁crush	-11.3596
▁cérebro	-11.3596
▁defeitos	-11.3596
▁desodorizante	-11.3596
▁digital	-11.3596
▁embalage	-11.3596
▁energética	-11.3596
▁escolho	-11.3596
▁espetáculo	-11.3596
▁excelente	-11.3596
▁expectativas	-11.3596
▁eyeliner	-11.3596
▁floyd	-11.3596
▁fofinho	-11.3596
▁frigideira	-11.3596
▁gossip	-11.3596
▁higiénico	-11.3596
▁honey	-11.3596
▁humor	-11.3596
▁hurt	-11.3596
▁imagine	-11.3596
▁incluída	-11.3596
▁itália	-11.3596
▁jump	-11.3596
▁juntas	-11.3596
▁machadex	-11.3596
▁milagre	-11.3596
▁módulo	-11.3596
▁notificação	-11.3596
▁picuinhas	-11.3596
▁premium	-11.3596
▁presença	-11.3596
▁propriamente	-11.3596
▁quantidade	-11.3596
▁reconheci	-11.3596
▁ridicula	-11.3596
▁segredo	-11.3596
▁sinceramente	-11.3596
▁stories	-11.3596
▁símbolo	-11.3596
▁trágico	-11.3596
▁tulicreme	-11.3596
▁vergonhos	-11.3596
▁where	-11.3596
tumblr	-11.3596
▁Braga	-11.3596
▁Consider	-11.3596
▁Fancy	-11.3596
▁Guarda	-11.3596
▁Raposo	-11.3596
▁antecipa	-11.3596
▁camião	-11.3596
▁convidou	-11.3596
▁hamster	-11.3596
▁morango	-11.3596
▁okaaay	-11.3596
▁reebok	-11.3596
▁remember	-11.3596
▁significativos	-11.3596
▁ótima	-11.3596
💦	-11.3596
▁alguem	-11.3596
▁configura	-11.3596
▁magoou	-11.3596
▁pissed	-11.3596
▁ritmo	-11.3596
▁Airbnb	-11.3596
▁asneiras	-11.3596
▁choro	-11.3596
▁pecado	-11.3596
/#/	-11.3596
▁Carrega	-11.3596
▁Leiria	-11.3596
▁costume	-11.3596
▁incó	-11.3596
▁indice	-11.3596
▁rush	-11.3596
▁Saaad	-11.3596
▁Segundo	-11.3596
xiaomi	-11.3596
▁Dream	-11.3596
▁sortudo	-11.3596
▁volei	-11.3596
▁jedi	-11.3596
▁terceiro	-11.3596
▁Mudei	-11.3596
▁aparecia	-11.3596
▁barata	-11.3596
▁determina	-11.3596
▁elétrica	-11.3596
▁calhou	-11.3596
▁convidar	-11.3596
▁minutes	-11.3596
▁riding	-11.3596
trotinete	-11.3596
▁adulta	-11.3596
▁sobremesa	-11.3596
▁foder	-11.3596
▁informações	-11.3596
▁💛💛	-11.3596
▁okok	-11.3596
▁conect	-11.3596
▁pdf	-11.3596
▁treinas	-11.3596
▁diagrama	-11.3596
▁development	-11.3596
▁theory	-11.3596
▁fonte	-11.3596
▁Nessa	-11.3596
▁queimada	-11.3596
▁lavei	-11.3596
▁preocupo	-11.3596
▁subfil	-11.3596
cumula	-11.3596
reddit	-11.3596
▁Chá	-11.3596
▁ahahhaha	-11.3596
▁fluidos	-11.3596
▁animar	-11.3596
▁aproximada	-11.3596
▁Bluetooth	-11.3596
▁miudo	-11.3596
▁BRINCAR	-11.3596
▁future	-11.3596
▁transferência	-11.3596
▁baixe	-11.3597
▁cheese	-11.3597
▁Achava	-11.3597
▁horny	-11.3597
▁stock	-11.3597
▁carinhos	-11.3597
▁wifi	-11.3597
▁celebrar	-11.3597
▁jelly	-11.3597
dicação	-11.3597
▁apresentações	-11.3597
▁cereais	-11.3597
▁quentinha	-11.3597
▁+/-	-11.3597
▁gordo	-11.3597
▁Question	-11.3597
▁alterações	-11.3597
▁photoshop	-11.3597
▁irracional	-11.3597
=2019-01-01	-11.3597
▁gesto	-11.3597
pher	-11.3597
▁substituir	-11.3597
espanha	-11.3598
▁Laura	-11.3598
destaques	-11.3598
▁adorei	-11.3598
ilipa	-11.3598
▁bang	-11.3598
▁vosso	-11.3598
bucks	-11.3598
▁gritar	-11.3598
loira	-11.3598
ético	-11.3598
▁Desliga	-11.3598
▁botas	-11.3599
▁14:30	-11.3599
▁aqueci	-11.3599
▁Teoricamente	-11.3599
▁senhorio	-11.3599
▁registado	-11.3599
lection	-11.3599
▁screenshot	-11.3599
▁chiado	-11.3599
▁Head	-11.3599
railer	-11.3599
▁definidas	-11.3599
▁contacta	-11.3599
▁6:30	-11.36
▁PARA	-11.36
▁Lamento	-11.36
▁pokemon	-11.36
▁ranho	-11.36
▁duração	-11.36
▁picada	-11.36
▁obrig	-11.36
▁interest	-11.3601
▁Life	-11.3601
▁lazy	-11.3601
▁Rude	-11.3601
▁santa	-11.3601
▁Marca	-11.3601
▁Tho	-11.3601
▁Xau	-11.3601
candidatura	-11.3602
▁9:30	-11.3602
▁Hola	-11.3602
▁jogava	-11.3602
▁Igual	-11.3602
▁estacionar	-11.3602
▁Terás	-11.3602
▁enche	-11.3602
▁inventar	-11.3602
▁Cheira	-11.3602
▁forget	-11.3602
▁teclado	-11.3602
▁quality	-11.3602
▁lenta	-11.3603
fk	-11.3603
▁frustrada	-11.3603
▁must	-11.3603
▁inchada	-11.3603
▁pormenores	-11.3603
▁pagina	-11.3603
▁movimento	-11.3604
search	-11.3604
▁produtiva	-11.3604
▁psicológico	-11.3604
lets	-11.3605
▁individual	-11.3605
▁👌	-11.3605
▁moder	-11.3605
▁Naaaaao	-11.3605
▁divertir	-11.3606
▁impressionado	-11.3606
▁tranquilo	-11.3606
▁saíram	-11.3606
▁Ehehehhe	-11.3606
▁confiar	-11.3606
▁18:30	-11.3607
▁espírito	-11.3607
▁kill	-11.3607
▁yolo	-11.3608
▁Pedi	-11.3608
▁fisicamente	-11.3608
▁Nesta	-11.3608
▁secante	-11.3609
▁Mudaste	-11.3609
▁namoramos	-11.3609
▁pê	-11.361
▁Pret	-11.3611
▁entrava	-11.3611
▁vieram	-11.3611
=2018-12-3	-11.3611
▁Alemanha	-11.3612
▁focar	-11.3612
▁alemães	-11.3612
▁Agosto	-11.3612
▁lutar	-11.3613
▁turnos	-11.3613
▁mexido	-11.3613
▁habituar	-11.3614
▁acordava	-11.3616
uponho	-11.3616
▁assumir	-11.3618
▁corada	-11.3619
▁drink	-11.3621
▁access	-11.3621
▁buddy	-11.3621
▁café	-11.3621
quiz	-11.3621
▁vinho	-11.3622
▁organiser	-11.3622
▁usava	-11.3623
▁100€	-11.3623
▁luis	-11.3624
▁despir	-11.3624
▁recuperar	-11.3625
▁farei	-11.3625
▁respeito	-11.3625
▁trying	-11.3626
▁areeiro	-11.3626
hot	-11.3627
atriz	-11.3627
▁vibra	-11.3627
▁avançado	-11.3629
▁visão	-11.3629
▁Sí	-11.3629
▁casota	-11.3629
▁facada	-11.3631
▁Chora	-11.3631
▁erva	-11.3635
▁🌙	-11.3637
▁comparar	-11.3637
spec	-11.3637
▁30€	-11.3638
▁seeing	-11.3638
▁level	-11.364
▁2€	-11.364
▁role	-11.3642
▁sobreviver	-11.3642
▁everything	-11.3644
▁000	-11.3646
▁dabs	-11.3647
▁class	-11.365
▁Precisava	-11.3653
zzz	-11.3654
▁fé	-11.3656
▁farte	-11.3659
▁10€	-11.366
▁concorrer	-11.366
azo	-11.3661
▁Comeste	-11.3662
▁teaser	-11.3663
▁sleepar	-11.3663
▁brinques	-11.3664
▁squats	-11.3664
XA	-11.3665
ason	-11.3665
Vou	-11.3665
=4	-11.3666
▁rece	-11.3666
▁compramos	-11.3668
reja	-11.3672
▁Lame	-11.3674
▁00:	-11.3674
▁average	-11.3677
▁yesss	-11.368
▁composta	-11.3682
UC	-11.3683
▁Jant	-11.3684
▁hei	-11.3684
▁demorado	-11.3687
▁mola	-11.3688
IY	-11.3689
aaaaaaaaaaaaaaaa	-11.369
RU	-11.369
▁combin	-11.369
💖💖	-11.3691
▁Yayy	-11.3695
▁many	-11.3698
▁exige	-11.3698
AI	-11.3698
indow	-11.3698
▁key	-11.3701
▁namorava	-11.3702
▁FO	-11.3704
aze	-11.3709
▁brilh	-11.3709
▁bla	-11.3714
▁descrever	-11.3718
▁Noted	-11.3718
▁came	-11.372
▁Team	-11.372
▁mota	-11.3723
Eu	-11.3726
IRA	-11.373
▁lido	-11.3733
▁Minha	-11.3734
▁segue	-11.3738
▁resulta	-11.374
ncl	-11.3741
▁pesadelos	-11.3754
▁manta	-11.3754
▁tenham	-11.3762
▁Suuuu	-11.377
▁paro	-11.3772
▁mostrou	-11.3774
viam	-11.3776
▁ignorar	-11.3777
sub	-11.378
anima	-11.378
▁duh	-11.3784
▁50€	-11.3784
vW	-11.3786
▁apaguei	-11.3786
▁tuna	-11.379
ARD	-11.3796
▁acrescenta	-11.3798
▁Mandava	-11.3798
ware	-11.3799
▁escuras	-11.38
▁Nicee	-11.381
-18	-11.3812
▁YE	-11.3815
▁paragem	-11.3818
▁Hmmmmmmm	-11.3818
▁puser	-11.3819
elly	-11.3829
▁contaste	-11.383
▁Compro	-11.3833
▁pain	-11.3835
▁pul	-11.3838
▁testa	-11.384
▁prioridades	-11.3845
▁calhas	-11.3846
▁toco	-11.3869
jf	-11.3876
▁Mete	-11.3877
aaaar	-11.3884
gira	-11.389
▁negros	-11.3891
=8	-11.3891
▁misso	-11.3895
ceitava	-11.3905
▁magr	-11.3907
entei	-11.3908
eca	-11.3913
▁honesta	-11.392
▁escreves	-11.3921
▁Falo	-11.3929
▁antigos	-11.3938
▁48	-11.394
▁Hm	-11.3964
▁conte	-11.3967
▁pin	-11.3976
rning	-11.3979
▁content	-11.398
▁king	-11.3984
▁mereces	-11.3984
▁selfies	-11.3984
▁gostasse	-11.3985
▁????	-11.3987
itório	-11.3988
▁viva	-11.3989
▁Ur	-11.3991
lice	-11.3993
CO	-11.4
shop	-11.4002
▁Hav	-11.4007
ém	-11.4016
▁Cont	-11.4018
over	-11.4021
ativo	-11.4027
He	-11.4042
▁............	-11.4042
▁gast	-11.4049
iR	-11.4056
dest	-11.4058
▁bebidas	-11.4082
▁Opaaa	-11.4082
isar	-11.4086
▁brun	-11.4092
▁sobrevive	-11.4103
▁virmos	-11.4106
▁Ly	-11.4108
▁esperares	-11.4109
▁conhecias	-11.4125
▁pretas	-11.4127
▁teorica	-11.4139
mino	-11.4143
▁Bar	-11.4143
▁pop	-11.4161
▁19.	-11.4166
▁empresta	-11.4168
/9	-11.4169
rendo	-11.4177
▁tensão	-11.4184
▁perdes	-11.4192
eguei	-11.4197
▁osso	-11.4212
▁poss	-11.4226
▁invers	-11.4241
▁Dou	-11.4271
▁podiam	-11.4271
NF	-11.4291
▁porco	-11.4292
▁limites	-11.4316
▁teen	-11.4319
entre	-11.4324
▁anu	-11.4343
enso	-11.4354
▁Deus	-11.4359
▁esca	-11.4361
edit	-11.4362
▁cant	-11.4363
▁Gr	-11.4368
cur	-11.4382
▁???	-11.4403
wk	-11.4408
720	-11.4408
cab	-11.4424
▁cost	-11.4429
▁neg	-11.4434
ago	-11.4439
920	-11.4446
ncluindo	-11.4475
local	-11.4494
oto	-11.4513
timo	-11.4516
▁desenvolv	-11.4516
bert	-11.4534
EV	-11.4535
▁encontra	-11.456
mulheres	-11.4592
prime	-11.4596
▁Respo	-11.4608
▁loca	-11.4611
TY	-11.4612
▁conclui	-11.4623
ton	-11.4625
MP	-11.4645
jq	-11.4648
▁amore	-11.4651
zz	-11.4659
▁DO	-11.4664
▁Voltar	-11.4666
▁dir	-11.4682
eek	-11.4703
gQ	-11.4722
url	-11.4726
ial	-11.4729
aaaaaaaaa	-11.4757
▁ahahahaha	-11.476
▁Siiiiiii	-11.477
▁Ohhhhhh	-11.4777
judou	-11.4789
▁edu	-11.4791
▁corrigi	-11.4792
BJ	-11.4792
DQ	-11.4827
▁Sorryyyy	-11.4835
▁gasto	-11.4873
1€	-11.4888
▁realiz	-11.4901
▁reserv	-11.4905
MT	-11.4915
▁participa	-11.4916
▁souber	-11.493
▁serie	-11.4964
/21	-11.4973
▁Sorryyy	-11.4989
▁sho	-11.5014
▁surpreend	-11.5027
▁Chei	-11.503
▁amua	-11.5042
▁Send	-11.5047
GA	-11.5052
▁sha	-11.5076
ated	-11.5077
ES	-11.5132
elf	-11.5168
▁tencion	-11.5193
▁import	-11.5197
▁Aproveit	-11.5203
▁cent	-11.5213
▁honest	-11.5214
▁animador	-11.5229
▁secret	-11.5231
▁noooo	-11.5271
media	-11.5295
cking	-11.5297
▁falha	-11.53
Tp	-11.5305
anny	-11.5312
isso	-11.5318
tima	-11.5319
▁desisti	-11.5348
▁estrela	-11.5349
▁namora	-11.5349
▁escura	-11.5354
▁crédito	-11.5356
▁resumo	-11.5362
▁transporte	-11.5365
▁lente	-11.5369
▁gasol	-11.5371
▁Almoç	-11.5383
=&	-11.5396
posts	-11.5402
alk	-11.5407
ónia	-11.5409
ked	-11.5414
▁fio	-11.5418
▁combina	-11.5427
▁perce	-11.5439
▁Todo	-11.5452
pensa	-11.5457
▁babyyyy	-11.5485
▁fixeeee	-11.5487
▁univers	-11.5488
tttt	-11.549
💓	-11.5492
xperimentei	-11.5496
mark	-11.5503
▁cabe	-11.5511
💙	-11.5511
lembra	-11.5511
▁omgggg	-11.5513
mariana	-11.5513
drive	-11.5513
traje	-11.5514
▁empres	-11.5514
▁calcula	-11.5514
sleep	-11.5515
true	-11.5515
pessoa	-11.5515
também	-11.5515
dormir	-11.5515
volta	-11.5517
lugar	-11.5517
spera	-11.552
▁despedi	-11.5532
▁Ewwww	-11.554
▁espeta	-11.5542
▁Quant	-11.5547
gic	-11.5548
down	-11.5554
noite	-11.5554
▁carrega	-11.5558
▁respeit	-11.5561
▁recupera	-11.5561
▁Omggg	-11.5563
▁cresce	-11.5563
lite	-11.5565
▁provo	-11.5566
▁babyyy	-11.5566
▁energi	-11.5569
get	-11.557
▁habitu	-11.5571
▁put	-11.5572
▁hor	-11.5573
▁Acabo	-11.5574
▁maio	-11.5575
▁chuv	-11.5576
gente	-11.5579
▁relaciona	-11.5579
giro	-11.5582
▁aprov	-11.5584
▁integra	-11.5584
▁choca	-11.5585
▁frustra	-11.5586
▁quadr	-11.5589
ranja	-11.5591
view	-11.5592
▁reuni	-11.5592
▁sangr	-11.5592
&#123;3&#125;	-11.5593
▁chov	-11.5593
ernardino	-11.5594
▁express	-11.5594
▁😘😘	-11.5594
▁substitu	-11.5594
ximo	-11.5595
▁conduz	-11.5595
▁Bati	-11.5595
xplorer	-11.5596
étrica	-11.5596
médica	-11.5596
💗	-11.5596
canon	-11.5596
cópi	-11.5596
▁Esqueço	-11.5596
▁ausentar	-11.5596
▁procrastin	-11.5596
▁stalkear	-11.5596
JYQ	-11.5596
^2&#125;&#125;$	-11.5596
ccurate	-11.5596
disciplina	-11.5596
leatoriamente	-11.5596
relevante	-11.5596
rrived	-11.5596
vangelho	-11.5596
ívio	-11.5596
▁Aprende	-11.5596
▁Coimbra	-11.5596
▁Compreensível	-11.5596
▁Costuma	-11.5596
▁Daaaaaamn	-11.5596
▁Dobrik	-11.5596
▁Eduardo	-11.5596
▁Eventualmente	-11.5596
▁Excited	-11.5596
▁Fátima	-11.5596
▁Inception	-11.5596
▁Interessante	-11.5596
▁Leonor	-11.5596
▁MORRE	-11.5596
▁Orgânica	-11.5596
▁Percebi	-11.5596
▁Perfect	-11.5596
▁Pizza	-11.5596
▁Promise	-11.5596
▁Saramago	-11.5596
▁Siiim	-11.5596
▁Skype	-11.5596
▁Sábado	-11.5596
▁Trabalh	-11.5596
▁agulha	-11.5596
▁aleatório	-11.5596
▁alternativa	-11.5596
▁alínea	-11.5596
▁ambiente	-11.5596
▁ananás	-11.5596
▁anything	-11.5596
▁atitude	-11.5596
▁açúcar	-11.5596
▁bolonhesa	-11.5596
▁campinacios	-11.5596
▁carbonara	-11.5596
▁childish	-11.5596
▁chores	-11.5596
▁christmas	-11.5596
▁chupão	-11.5596
▁cinzento	-11.5596
▁clingy	-11.5596
▁clitóris	-11.5596
▁cogumelo	-11.5596
▁coluna	-11.5596
▁condutor	-11.5596
▁coordenador	-11.5596
▁crazy	-11.5596
▁descobre	-11.5596
▁distinguir	-11.5596
▁divergência	-11.5596
▁drained	-11.5596
▁décimas	-11.5596
▁empréstimo	-11.5596
▁enjoado	-11.5596
▁ensinar	-11.5596
▁entusiasmad	-11.5596
▁esteticista	-11.5596
▁estupidez	-11.5596
▁explorar	-11.5596
▁fausto	-11.5596
▁festival	-11.5596
▁fiambre	-11.5596
▁frigorífico	-11.5596
▁fórum	-11.5596
▁gabinete	-11.5596
▁grelhada	-11.5596
▁gémeo	-11.5596
▁hackea	-11.5596
▁hilariante	-11.5596
▁icónico	-11.5596
▁inclinad	-11.5596
▁indicada	-11.5596
▁infantil	-11.5596
▁infelizmente	-11.5596
▁inferior	-11.5596
▁influência	-11.5596
▁iniciativa	-11.5596
▁inscrição	-11.5596
▁laboratorio	-11.5596
▁literally	-11.5596
▁lubrificante	-11.5596
▁líquido	-11.5596
▁minutinhos	-11.5596
▁moldura	-11.5596
▁monitor	-11.5596
▁months	-11.5596
▁naughty	-11.5596
▁nigga	-11.5596
▁objeto	-11.5596
▁paciência	-11.5596
▁palmira	-11.5596
▁partícula	-11.5596
▁película	-11.5596
▁perpendicular	-11.5596
▁prazer	-11.5596
▁preferível	-11.5596
▁propinas	-11.5596
▁pubg	-11.5596
▁reduce	-11.5596
▁refeições	-11.5596
▁reflex	-11.5596
▁represent	-11.5596
▁respondo	-11.5596
▁roadtrip	-11.5596
▁rodoviária	-11.5596
▁rossio	-11.5596
▁rádio	-11.5596
▁salsicha	-11.5596
▁simulador	-11.5596
▁skills	-11.5596
▁skype	-11.5596
▁spray	-11.5596
▁squad	-11.5596
▁sucesso	-11.5596
▁swear	-11.5596
▁thumbnail	-11.5596
▁torradeira	-11.5596
▁traumatizado	-11.5596
▁tupperware	-11.5596
▁ténis	-11.5596
▁variedade	-11.5596
▁wallpaper	-11.5596
▁warming	-11.5596
▁westworld	-11.5596
▁woooow	-11.5596
▁Álgebra	-11.5596
▁Ótimo	-11.5596
▁útero	-11.5596
🇹	-11.5596
😶	-11.5596
oulmates	-11.5596
▁50/50	-11.5596
▁Actually	-11.5596
▁Partilha	-11.5596
▁Power	-11.5596
▁White	-11.5596
▁açorda	-11.5596
▁carolina	-11.5596
▁colombo	-11.5596
▁confirmo	-11.5596
▁convencer	-11.5596
▁deslocar	-11.5596
▁excitad	-11.5596
▁iPad	-11.5596
▁legit	-11.5596
▁monument	-11.5596
▁outubro	-11.5596
▁reboque	-11.5596
▁relaxa	-11.5596
▁shook	-11.5596
▁tampões	-11.5596
chosen	-11.5596
▁Exame	-11.5596
▁Vasco	-11.5596
▁gonced	-11.5596
▁gravata	-11.5596
▁industri	-11.5596
▁sometimes	-11.5596
▁soutien	-11.5596
referr	-11.5596
▁Apanha	-11.5596
▁cirurgia	-11.5596
▁espuma	-11.5596
▁garagem	-11.5596
▁impresso	-11.5596
▁internacional	-11.5596
▁viewer	-11.5596
▁Pessoa	-11.5596
▁juro	-11.5596
▁possivel	-11.5596
▁prefixo	-11.5596
▁Luis	-11.5596
▁SMS	-11.5596
▁Saaaabes	-11.5596
▁assumo	-11.5596
▁ceninha	-11.5596
▁esticar	-11.5596
▁inovar	-11.5596
▁loiro	-11.5596
▁Fnac	-11.5596
▁Niall	-11.5596
▁cuddly	-11.5596
▁dildo	-11.5596
▁parafuso	-11.5596
▁entanto	-11.5596
▁origem	-11.5596
▁score	-11.5596
▁tolerância	-11.5596
▁Twins	-11.5596
▁doubt	-11.5596
▁Saaame	-11.5596
▁dimens	-11.5596
▁reage	-11.5596
▁válida	-11.5596
sparguet	-11.5596
▁Naaaaaao	-11.5596
▁Queimei	-11.5596
▁operada	-11.5596
▁pilhas	-11.5596
▁quentinho	-11.5596
▁safar	-11.5596
▁Beeeem	-11.5596
▁flash	-11.5596
uniplaces	-11.5596
picy	-11.5596
▁Europe	-11.5596
▁Limpa	-11.5596
▁desfocada	-11.5596
▁grey	-11.5596
▁finalistas	-11.5596
▁injust	-11.5596
Lightroom	-11.5596
capacete	-11.5596
▁Eheheheh	-11.5596
▁ligeiramente	-11.5596
▁Ahahahhaha	-11.5596
▁adulto	-11.5596
▁ahhaha	-11.5596
▁onesie	-11.5596
▁agarras	-11.5596
▁tempinho	-11.5596
▁fechadura	-11.5596
▁eleições	-11.5596
▁pedra	-11.5596
▁Nude	-11.5596
▁ausência	-11.5596
▁zero	-11.5596
▁beautiful	-11.5596
▁general	-11.5596
▁overview	-11.5596
▁alternada	-11.5596
▁preguiçoso	-11.5596
▁prejudicar	-11.5596
▁cega	-11.5596
!!!!!!!!!!!!!!!!	-11.5596
▁desnecessário	-11.5596
▁devagarinho	-11.5596
▁diminuir	-11.5596
▁limão	-11.5596
▁favorece	-11.5597
▁terreiro	-11.5597
▁Cozinha	-11.5597
▁conselho	-11.5597
▁interagi	-11.5597
▁Altera	-11.5597
▁Roger	-11.5597
▁chines	-11.5597
▁threesome	-11.5597
ngoli	-11.5597
▁Cansada	-11.5597
▁doença	-11.5597
▁durma	-11.5597
▁semelhança	-11.5597
gratis	-11.5597
▁mecani	-11.5597
▁taxa	-11.5597
worten	-11.5597
▁aprecia	-11.5597
▁sensor	-11.5597
fbc	-11.5597
▁Portugália	-11.5597
▁transferi	-11.5597
▁açores	-11.5597
▁Ughhh	-11.5597
85€	-11.5597
▁saúde	-11.5597
▁patins	-11.5597
▁duvido	-11.5597
▁namoro	-11.5597
▁tentativa	-11.5597
double	-11.5597
▁Outros	-11.5597
▁sarcasmo	-11.5597
▁station	-11.5597
▁oops	-11.5597
▁nothing	-11.5597
hannel	-11.5597
▁assustada	-11.5597
▁cortejo	-11.5597
▁relate	-11.5597
▁journalist	-11.5597
▁reclamação	-11.5597
▁marques	-11.5597
▁dorida	-11.5597
▁resistir	-11.5597
▁Admito	-11.5597
▁Review	-11.5597
▁stick	-11.5597
▁Julho	-11.5597
▁naaaao	-11.5597
▁alegr	-11.5597
▁critica	-11.5597
▁Overall	-11.5597
▁😍😍	-11.5597
▁entender	-11.5597
▁clicar	-11.5597
▁futura	-11.5598
▁21:30	-11.5598
▁prometido	-11.5598
▁paralelo	-11.5598
▁coninhas	-11.5598
▁space	-11.5598
▁Siiiiiim	-11.5598
▁born	-11.5598
▁geo	-11.5598
cultura	-11.5598
▁passámos	-11.5598
▁postura	-11.5598
▁picante	-11.5598
▁Atende	-11.5598
▁half	-11.5598
rroios	-11.5598
▁Duh	-11.5598
▁iphone	-11.5598
IRO	-11.5598
▁gps	-11.5598
▁inveja	-11.5598
énio	-11.5598
▁caril	-11.5598
▁diário	-11.5598
▁militar	-11.5598
▁quick	-11.5598
▁Morrendo	-11.5598
▁hipot	-11.5598
▁suponho	-11.5599
▁bolso	-11.5599
aguarda	-11.5599
▁desativ	-11.5599
▁desligas	-11.5599
▁Long	-11.5599
▁constantemente	-11.5599
▁oiço	-11.5599
▁Março	-11.5599
▁motivo	-11.5599
▁planta	-11.5599
▁desperdiçar	-11.5599
▁fail	-11.5599
IST	-11.5599
▁Direi	-11.5599
▁hear	-11.5599
▁17:30	-11.5599
▁incrivel	-11.56
▁11:30	-11.56
▁comparação	-11.56
▁Social	-11.56
▁Totil	-11.56
▁entao	-11.56
▁cantava	-11.56
▁Compreendo	-11.5601
▁clima	-11.5601
▁resulte	-11.5601
▁8766	-11.5601
▁Grava	-11.5601
▁odeia	-11.5601
▁irmao	-11.5601
▁ponteiro	-11.5601
vivê	-11.5602
▁preparado	-11.5602
▁garantido	-11.5602
▁desliguei	-11.5602
▁estudante	-11.5602
▁realizar	-11.5602
▁mark	-11.5602
▁gilette	-11.5602
▁esconder	-11.5603
▁lingua	-11.5603
▁Sik	-11.5603
▁plu	-11.5603
▁adivinhar	-11.5603
▁flor	-11.5603
▁MAS	-11.5604
▁Paris	-11.5604
▁ajude	-11.5604
▁carrego	-11.5604
asanha	-11.5604
▁desisto	-11.5604
▁15:30	-11.5605
▁carregada	-11.5605
▁yeaaaah	-11.5605
▁9:50	-11.5605
!!!!!!!!!	-11.5605
▁crying	-11.5606
▁alive	-11.5606
▁aguentei	-11.5606
▁Esprem	-11.5606
imdb	-11.5606
▁nula	-11.5606
▁rock	-11.5607
▁12°	-11.5607
▁decathlon	-11.5607
^4	-11.5608
▁arrepender	-11.5608
▁Senhor	-11.5608
▁Amanh	-11.5608
▁desmaiar	-11.5608
▁garantir	-11.5608
▁alimentar	-11.5608
▁escov	-11.5608
▁destino	-11.5608
▁passageiros	-11.5609
ARQ	-11.5609
▁magn	-11.5609
▁importares	-11.561
▁gata	-11.561
▁independente	-11.561
▁incha	-11.561
▁alma	-11.561
▁exam	-11.5611
▁presa	-11.5611
▁menu	-11.5611
▁pista	-11.5612
▁compromet	-11.5612
▁chef	-11.5612
pirate	-11.5613
▁saying	-11.5613
▁relacionado	-11.5613
▁psic	-11.5613
ncios	-11.5614
▁base	-11.5614
▁Bate	-11.5614
▁tentes	-11.5614
editaste	-11.5614
▁Run	-11.5615
▁second	-11.5615
▁atualizar	-11.5615
▁Deep	-11.5616
▁Win	-11.5616
ARA	-11.5616
▁4€	-11.5617
odles	-11.5617
culto	-11.5617
▁tapar	-11.5617
▁sofri	-11.5618
▁correta	-11.5618
▁plana	-11.5618
▁faltou	-11.5618
▁interessada	-11.5618
éci	-11.5618
▁furo	-11.5618
▁considero	-11.5618
tional	-11.5619
proxi	-11.5619
▁Prest	-11.5619
▁unica	-11.562
:25	-11.562
▁lembrado	-11.562
▁decision	-11.5621
▁thinking	-11.5622
▁250€	-11.5623
▁Noob	-11.5623
quinho	-11.5624
▁debate	-11.5626
▁leia	-11.5626
▁improv	-11.5626
:00	-11.5627
▁place	-11.5627
▁fds	-11.5627
fied	-11.5627
▁conheceu	-11.5628
publico	-11.5628
▁despedida	-11.5629
▁naaaaao	-11.563
▁latex	-11.5631
▁rio	-11.5632
▁compreender	-11.5632
▁antibiótico	-11.5633
éis	-11.5633
▁fechada	-11.5633
▁yoda	-11.5634
▁desvi	-11.5635
▁Star	-11.5635
▁Esteve	-11.5635
▁considerado	-11.5635
▁fiquem	-11.5636
▁tiger	-11.5636
▁escreveste	-11.5637
▁needed	-11.5638
▁criei	-11.5638
gressivamente	-11.564
clips	-11.564
▁definido	-11.5641
▁Nun	-11.5641
▁estudaste	-11.5642
XW	-11.5643
▁lago	-11.5644
ZZ	-11.5644
nix	-11.5644
▁ipho	-11.5645
▁ponta	-11.5645
▁maioria	-11.5646
▁🍑	-11.5647
▁🧡	-11.5647
▁conhecem	-11.5647
▁atender	-11.5647
▁project	-11.5647
▁mic	-11.565
▁25€	-11.5651
repes	-11.5652
roupie	-11.5652
VP	-11.5652
▁vestida	-11.5654
▁cutest	-11.5655
telecomunicações	-11.5656
take	-11.5658
DX	-11.566
▁match	-11.5661
ssociação	-11.5665
▁evita	-11.5665
▁respondeste	-11.5666
▁baixado	-11.5666
ambas	-11.5666
▁atrasou	-11.5667
detalhe	-11.5669
▁despi	-11.567
▁Calma	-11.5673
▁Waiting	-11.5673
▁tomada	-11.5674
Sq	-11.5677
qR	-11.5678
▁pay	-11.5678
▁adormeças	-11.5681
▁alergias	-11.5681
▁capacidades	-11.5681
▁emblemas	-11.5681
▁kebabs	-11.5681
▁lyrics	-11.5681
▁Almoçar	-11.5684
▁deveria	-11.5684
▁rapazes	-11.5684
▁desaparecer	-11.5685
KP	-11.5687
KQ	-11.5687
▁GO	-11.5688
▁made	-11.5688
▁demorava	-11.569
▁dobro	-11.5696
1%3	-11.5696
▁1%	-11.5697
PF	-11.5697
▁usasse	-11.5698
dicionei	-11.5701
▁peru	-11.5702
▁figure	-11.5704
▁vêem	-11.5704
▁twitter	-11.5707
▁nua	-11.5707
▁CP	-11.5709
▁Ignora	-11.571
ache	-11.5712
scan	-11.5714
▁acabamos	-11.5722
ember	-11.5727
ringe	-11.5734
dois	-11.574
▁funcionam	-11.5742
▁beat	-11.5742
page	-11.5744
▁Deram	-11.5745
▁&#064;	-11.5747
▁decidimos	-11.5753
▁person	-11.5754
▁fixo	-11.5756
US	-11.5756
694	-11.5758
▁ideal	-11.5758
▁song	-11.5759
▁bio	-11.576
▁suada	-11.5765
▁Estud	-11.5773
▁afta	-11.5774
▁passaste	-11.5775
▁Aulas	-11.5779
▁Desculpada	-11.5787
india	-11.5793
▁topic	-11.5796
▁tiraram	-11.5796
▁ger	-11.5799
eeeeeeeeeeeeeeee	-11.5803
▁andam	-11.5807
▁passeio	-11.5809
▁Ficava	-11.5812
▁mostrares	-11.5814
zip	-11.5818
▁bal	-11.5819
amor	-11.582
▁gostaram	-11.582
▁Tw	-11.582
▁Ui	-11.5831
▁Olaaaaa	-11.5834
▁ouviu	-11.5841
▁estrelas	-11.585
ssert	-11.585
wise	-11.5854
Vi	-11.5855
▁Lava	-11.5858
▁diabo	-11.5863
▁responderes	-11.5869
▁Teste	-11.5871
▁compreende	-11.5873
.5€	-11.5879
▁mant	-11.588
▁chegasse	-11.5885
▁fita	-11.5888
▁campa	-11.5896
▁acabam	-11.5912
▁veremos	-11.5922
ture	-11.5928
▁ESTA	-11.5932
▁começam	-11.5941
▁falam	-11.5943
▁Sair	-11.5949
ferent	-11.5951
ntrei	-11.5978
▁cam	-11.5985
▁quote	-11.5997
▁familiar	-11.6003
▁Ahhhhhhh	-11.6005
ização	-11.6015
▁YA	-11.6016
▁Sentir	-11.6018
arth	-11.6026
▁fel	-11.6027
▁cc	-11.6031
▁andares	-11.6032
Ud	-11.6036
▁teso	-11.6037
band	-11.6052
▁leres	-11.6055
▁aconselha	-11.6067
_9	-11.607
▁assalta	-11.6075
fw	-11.6081
▁molh	-11.6107
YH	-11.6111
imple	-11.6113
nique	-11.6129
▁gag	-11.6132
▁Tha	-11.6147
▁discutir	-11.6158
▁envergonhad	-11.6161
▁vote	-11.6193
eza	-11.6224
etting	-11.6226
ejo	-11.6228
▁Ahahhaha	-11.6247
▁pick	-11.6249
CH	-11.6267
fit	-11.627
▁assina	-11.6282
▁Gra	-11.6318
cê	-11.6328
▁infe	-11.6335
zinho	-11.6346
▁Tom	-11.6358
▁LE	-11.6361
NY	-11.6388
dentificar	-11.6404
ulação	-11.644
▁horr	-11.6444
▁bol	-11.6451
876	-11.6489
zN	-11.6503
▁inspira	-11.6505
VZ	-11.6513
▁delega	-11.6514
▁sab	-11.6528
8:30	-11.6536
rena	-11.6544
▁nascer	-11.662
▁Maaa	-11.6624
rip	-11.6636
poi	-11.6655
................	-11.6657
deira	-11.6668
........	-11.6682
▁sobe	-11.6685
▁pusere	-11.6727
▁alé	-11.6734
▁Mad	-11.6757
▁Babyyyyy	-11.6771
▁afasta	-11.6773
pF	-11.6777
kx	-11.6789
▁bala	-11.679
▁mencion	-11.6845
ahah	-11.6851
TL	-11.6918
▁somar	-11.6937
▁Saaaa	-11.6959
▁Atira	-11.6968
SV	-11.6992
NC	-11.7006
olha	-11.7006
pira	-11.7011
íb	-11.7019
▁usá	-11.702
▁elogi	-11.7031
mpl	-11.7031
uja	-11.7047
▁calar	-11.7058
▁vend	-11.7065
AT	-11.7074
UI	-11.7082
CN	-11.7084
760	-11.7094
busca	-11.7095
hora	-11.71
▁guard	-11.7105
▁apert	-11.7108
▁pesar	-11.7111
FU	-11.7131
▁ignora	-11.714
▁Naquel	-11.7141
ario	-11.7144
▁Gast	-11.7178
NI	-11.7187
EY	-11.7188
▁Bou	-11.7191
▁1000	-11.721
▁incomodar	-11.7246
▁Chic	-11.7311
▁assin	-11.7312
▁NA	-11.732
ária	-11.7321
271	-11.7363
▁emocion	-11.7382
▁each	-11.7401
duca	-11.7425
acho	-11.7468
zinha	-11.7536
plesmente	-11.7552
▁italia	-11.7554
▁atras	-11.7585
▁Hmmmmmmmmm	-11.7592
▁familia	-11.7597
dul	-11.7622
ntagem	-11.7636
icio	-11.7664
▁enviad	-11.7696
▁suger	-11.7724
onde	-11.7732
pareceu	-11.7748
▁confus	-11.7758
video	-11.777
ement	-11.7773
agas	-11.7778
▁morde	-11.7782
ette	-11.7784
partamento	-11.7817
mbos	-11.7847
▁Lembr	-11.7851
▁pesadelo	-11.7853
▁panado	-11.7857
▁ombro	-11.7858
trás	-11.7861
▁Cena	-11.7861
▁resist	-11.7861
▁2.5	-11.7864
eral	-11.787
▁chave	-11.787
▁batata	-11.7872
▁evento	-11.7876
imprim	-11.7894
▁Escolh	-11.7901
▁figur	-11.7911
▁sorryyy	-11.7921
▁esf	-11.7926
▁wor	-11.7934
verá	-11.7935
▁canal	-11.7936
ricas	-11.7951
ivamente	-11.7969
▁apresenta	-11.7971
▁Buéeee	-11.7973
▁hello	-11.7974
▁goal	-11.7974
▁identifica	-11.7976
ído	-11.7977
ucar	-11.798
▁extrem	-11.7989
▁esforça	-11.7992
ntretanto	-11.7994
taaaaao	-11.8005
cadeia	-11.801
▁boyyy	-11.8011
portugal	-11.8014
playlist	-11.8014
▁nervos	-11.8014
bilhete	-11.8015
reparei	-11.8015
weird	-11.8015
normal	-11.8015
percebi	-11.8015
Mariana	-11.8015
utfit	-11.8015
Lisboa	-11.8016
hoje	-11.8016
ainda	-11.8017
achas	-11.8017
ponto	-11.8021
Faze	-11.8021
cicl	-11.8025
campa	-11.8025
nX	-11.8026
(?)	-11.8026
back	-11.8029
vejo	-11.8032
▁program	-11.8034
▁estiv	-11.8037
girl	-11.804
▁Encontra	-11.8045
▁trajad	-11.8045
melhor	-11.8046
Mil	-11.8047
▁adiciona	-11.8049
▁Aaahh	-11.805
▁Olh	-11.8053
▁planea	-11.8053
▁associa	-11.8054
▁pude	-11.8057
▁multi	-11.8058
▁filma	-11.806
▁descreve	-11.8061
▁model	-11.8062
▁positiv	-11.8062
▁frances	-11.8063
▁sorri	-11.8064
▁visita	-11.8065
▁Quand	-11.8066
mizad	-11.8066
▁assumi	-11.8069
that	-11.807
▁reparo	-11.8073
está	-11.8074
▁sort	-11.8077
▁decl	-11.808
▁pergunte	-11.808
▁inclu	-11.8082
Já	-11.8083
▁president	-11.8084
▁important	-11.8084
▁menti	-11.8087
▁tecla	-11.8087
▁diversi	-11.8088
scrições	-11.809
▁desapont	-11.809
ncomoda	-11.8091
▁kil	-11.8091
▁inscrev	-11.8092
▁exata	-11.8092
ryanair	-11.8092
stupid	-11.8092
▁trigger	-11.8093
▁competi	-11.8093
▁parametriza	-11.8093
▁históri	-11.8094
index	-11.8094
medium	-11.8094
Phone	-11.8095
▁15:3	-11.8095
▁depila	-11.8095
▁Christ	-11.8095
ologicamente	-11.8095
ídeos	-11.8096
layout	-11.8096
▁concre	-11.8096
Genius	-11.8096
smartphone	-11.8096
▁conju	-11.8096
portugues	-11.8096
ância	-11.8096
Development	-11.8096
economi	-11.8096
💘	-11.8096
▁AHAHAHAH	-11.8096
(((((((((((((((	-11.8096
resíduo	-11.8096
▁atrapalh	-11.8096
▁embirr	-11.8096
wiki	-11.8096
▁compromisso	-11.8096
▁estabelec	-11.8096
▁investi	-11.8096
3;3&#125;&#125;$	-11.8096
MZS	-11.8096
confortavel	-11.8096
enfermeira	-11.8096
fundiste	-11.8096
ggressive	-11.8096
goTDUA	-11.8096
grateful	-11.8096
krypton	-11.8096
lentejano	-11.8096
lândia	-11.8096
mecânico	-11.8096
ngenharia	-11.8096
ʖ	-11.8096
͜	-11.8096
━	-11.8096
▁ACONTECE	-11.8096
▁Abril	-11.8096
▁Absolutamente	-11.8096
▁Aconselho	-11.8096
▁Adormece	-11.8096
▁Antunes	-11.8096
▁Assembl	-11.8096
▁Chair	-11.8096
▁Clearly	-11.8096
▁Confirma	-11.8096
▁DiCaprio	-11.8096
▁Disagree	-11.8096
▁Encomend	-11.8096
▁Engraçado	-11.8096
▁Exactly	-11.8096
▁Friend	-11.8096
▁Hélder	-11.8096
▁Impressionante	-11.8096
▁Instagram	-11.8096
▁Interesting	-11.8096
▁LINDO	-11.8096
▁Mensagens	-11.8096
▁Novembro	-11.8096
▁Outubro	-11.8096
▁Previsível	-11.8096
▁Public	-11.8096
▁Python	-11.8096
▁Santander	-11.8096
▁Sayonara	-11.8096
▁Spoiler	-11.8096
▁Sporting	-11.8096
▁Stalker	-11.8096
▁Thought	-11.8096
▁Tomorrow	-11.8096
▁Watching	-11.8096
▁abstraç	-11.8096
▁aceitável	-11.8096
▁agradar	-11.8096
▁agressivo	-11.8096
▁algebra	-11.8096
▁analógica	-11.8096
▁angular	-11.8096
▁apropriado	-11.8096
▁arranha	-11.8096
▁arredondamento	-11.8096
▁arrependo	-11.8096
▁autoestrada	-11.8096
▁bacalhau	-11.8096
▁background	-11.8096
▁bairro	-11.8096
▁bloqueou	-11.8096
▁bónus	-11.8096
▁caracóis	-11.8096
▁carteira	-11.8096
▁cenoura	-11.8096
▁chapéu	-11.8096
▁choque	-11.8096
▁cidadão	-11.8096
▁cinzenta	-11.8096
▁comunicar	-11.8096
▁confundi	-11.8096
▁conheça	-11.8096
▁convencid	-11.8096
▁cumprimentou	-11.8096
▁cupões	-11.8096
▁currículo	-11.8096
▁deadline	-11.8096
▁decifrar	-11.8096
▁deprimid	-11.8096
▁desarruma	-11.8096
▁desiludi	-11.8096
▁desilusão	-11.8096
▁diploma	-11.8096
▁diverte	-11.8096
▁documentário	-11.8096
▁eficiente	-11.8096
▁engorda	-11.8096
▁entusiasmo	-11.8096
▁espanhóis	-11.8096
▁espectativas	-11.8096
▁eventualmente	-11.8096
▁evoluç	-11.8096
▁exterior	-11.8096
▁feminino	-11.8096
▁filetes	-11.8096
▁funcione	-11.8096
▁futebol	-11.8096
▁gillette	-11.8096
▁girlfriend	-11.8096
▁guerra	-11.8096
▁gulbenkian	-11.8096
▁healthy	-11.8096
▁horríveis	-11.8096
▁hungry	-11.8096
▁icónica	-11.8096
▁impacto	-11.8096
▁indefinidamente	-11.8096
▁instrumenta	-11.8096
▁instruções	-11.8096
▁iogurte	-11.8096
▁ketchup	-11.8096
▁lemonade	-11.8096
▁licença	-11.8096
▁manutenção	-11.8096
▁margarina	-11.8096
▁medicine	-11.8096
▁microondas	-11.8096
▁monstro	-11.8096
▁montanha	-11.8096
▁mármore	-11.8096
▁mínima	-11.8096
▁negativa	-11.8096
▁nenhuns	-11.8096
▁nevoeiro	-11.8096
▁notificações	-11.8096
▁nublado	-11.8096
▁níveis	-11.8096
▁obviously	-11.8096
▁oftalmologista	-11.8096
▁opportunity	-11.8096
▁orelha	-11.8096
▁otorrino	-11.8096
▁paciencia	-11.8096
▁partilho	-11.8096
▁patrícia	-11.8096
▁pequenino	-11.8096
▁permanentemente	-11.8096
▁personagens	-11.8096
▁publicidade	-11.8096
▁python	-11.8096
▁raízes	-11.8096
▁recomenda	-11.8096
▁recorrencia	-11.8096
▁recusava	-11.8096
▁regress	-11.8096
▁ressaca	-11.8096
▁revelar	-11.8096
▁ridícula	-11.8096
▁russa	-11.8096
▁sapadores	-11.8096
▁saramago	-11.8096
▁satisfying	-11.8096
▁silhueta	-11.8096
▁simbólic	-11.8096
▁superfície	-11.8096
▁sérgio	-11.8096
▁telemóveis	-11.8096
▁together	-11.8096
▁tópico	-11.8096
▁uncomfortable	-11.8096
▁variáveis	-11.8096
▁vazia	-11.8096
▁verifico	-11.8096
▁vigiar	-11.8096
▁voleibol	-11.8096
▁vomitou	-11.8096
▁wrong	-11.8096
▁Água	-11.8096
▁áudio	-11.8096
彡	-11.8096
益	-11.8096
🅱	-11.8096
🏼	-11.8096
😎	-11.8096
😓	-11.8096
onflict	-11.8096
▁Always	-11.8096
▁Cebola	-11.8096
▁Conheço	-11.8096
▁Embrace	-11.8096
▁Plebe	-11.8096
▁Yeaaah	-11.8096
▁astral	-11.8096
▁blue	-11.8096
▁cabine	-11.8096
▁desligado	-11.8096
▁engravidar	-11.8096
▁ensaio	-11.8096
▁family	-11.8096
▁horizon	-11.8096
▁impede	-11.8096
▁menstruação	-11.8096
▁músculo	-11.8096
▁nudge	-11.8096
▁ofereceu	-11.8096
▁pedaço	-11.8096
▁protetor	-11.8096
▁spice	-11.8096
▁substituição	-11.8096
▁swag	-11.8096
▁verruga	-11.8096
herlock	-11.8096
▁Comboio	-11.8096
▁Control	-11.8096
▁Ttyl	-11.8096
▁azuis	-11.8096
▁bicho	-11.8096
▁coitado	-11.8096
▁darkness	-11.8096
▁dossier	-11.8096
▁doutores	-11.8096
▁esticado	-11.8096
▁insane	-11.8096
▁mamilo	-11.8096
▁partilhe	-11.8096
▁pulveriza	-11.8096
▁recomendo	-11.8096
▁stream	-11.8096
▁wild	-11.8096
▁Becky	-11.8096
▁estragou	-11.8096
▁hpv	-11.8096
▁instint	-11.8096
▁xaxa	-11.8096
▁Great	-11.8096
▁Prenda	-11.8096
▁coisinha	-11.8096
▁deprimente	-11.8096
▁educação	-11.8096
▁goooood	-11.8096
▁jovens	-11.8096
▁pacote	-11.8096
▁pornhub	-11.8096
▁sushi	-11.8096
boyfriend	-11.8096
emprego	-11.8096
ikipedia	-11.8096
ropbox	-11.8096
theless	-11.8096
yyyyyyyyyyyyyyyy	-11.8096
▁Punha	-11.8096
▁Pára	-11.8096
▁cheesy	-11.8096
▁clone	-11.8096
▁coçar	-11.8096
▁magia	-11.8096
▁AHAHAHAHAH	-11.8096
▁Atchas	-11.8096
▁cancro	-11.8096
▁entremeada	-11.8096
▁luxo	-11.8096
▁tarefa	-11.8096
^2&#125;&#12	-11.8096
aaanks	-11.8096
▁Import	-11.8096
▁artista	-11.8096
▁circ	-11.8096
▁drop	-11.8096
▁irresponsável	-11.8096
iloveputarias	-11.8096
▁appetit	-11.8096
aspx	-11.8096
bracelet	-11.8096
▁colete	-11.8096
▁electro	-11.8096
▁salmão	-11.8096
Continente	-11.8096
venida	-11.8096
▁doggy	-11.8096
▁importância	-11.8096
▁Calcula	-11.8096
▁ningu	-11.8096
▁área	-11.8096
02.4	-11.8096
▁acertei	-11.8096
▁vertical	-11.8096
▁cray	-11.8096
▁cream	-11.8096
▁ferro	-11.8096
AskReddit	-11.8096
▁plástic	-11.8096
▁1.78	-11.8096
▁Verona	-11.8096
▁gif	-11.8096
▁romantic	-11.8096
lecula	-11.8096
▁Giro	-11.8096
▁sofro	-11.8096
▁veneza	-11.8096
▁primark	-11.8096
▁gemer	-11.8096
▁desesper	-11.8096
▁pessimista	-11.8096
▁avaliação	-11.8096
▁esperança	-11.8096
▁genero	-11.8096
▁olaias	-11.8096
▁Piada	-11.8096
▁benfica	-11.8096
▁correntes	-11.8096
▁Aaaaaaahhhh	-11.8096
▁fatia	-11.8096
▁Nolan	-11.8097
jetivo	-11.8097
▁Naaah	-11.8097
▁odiava	-11.8097
ternaciona	-11.8097
▁soluções	-11.8097
▁esgota	-11.8097
▁GOST	-11.8097
▁menina	-11.8097
▁improvável	-11.8097
??????????	-11.8097
▁tirso	-11.8097
▁assinatura	-11.8097
▁vans	-11.8097
▁louca	-11.8097
%2520	-11.8097
▁compressa	-11.8097
▁assoar	-11.8097
▁Mimi	-11.8097
▁afeto	-11.8097
▁Samesie	-11.8097
▁Merda	-11.8097
▁risos	-11.8097
▁susto	-11.8097
infant	-11.8097
penny	-11.8097
▁concurso	-11.8097
▁After	-11.8097
▁oxig	-11.8097
▁validade	-11.8097
▁fugir	-11.8097
▁sines	-11.8097
▁caloira	-11.8097
▁escrita	-11.8097
music	-11.8097
levis	-11.8097
▁famoso	-11.8097
▁queimar	-11.8097
▁reuniao	-11.8097
▁showman	-11.8097
▁bump	-11.8097
▁fininhos	-11.8097
▁internet	-11.8097
▁encravado	-11.8097
▁finger	-11.8098
strange	-11.8098
▁sweetest	-11.8098
▁samsung	-11.8098
▁seeeei	-11.8098
▁week	-11.8098
2606	-11.8098
▁Awake	-11.8098
▁every	-11.8098
▁maluco	-11.8098
▁Fml	-11.8098
▁joana	-11.8098
▁atropelado	-11.8098
▁Ignored	-11.8098
▁13:00	-11.8098
Money	-11.8098
▁Segui	-11.8098
nterpret	-11.8098
▁obrigação	-11.8098
▁traía	-11.8098
▁maluca	-11.8098
▁Honey	-11.8098
▁verdadeira	-11.8098
club	-11.8098
etiquet	-11.8098
▁descoberto	-11.8098
▁lixar	-11.8098
▁experimentaste	-11.8098
▁Ahahahahahha	-11.8098
▁existir	-11.8098
▁separados	-11.8098
▁neither	-11.8098
▁Ideia	-11.8098
▁kfc	-11.8099
________________	-11.8099
▁molhado	-11.8099
▁bored	-11.8099
▁condições	-11.8099
▁veia	-11.8099
▁24/7	-11.8099
▁coelho	-11.8099
😢😢😢	-11.8099
▁pagamento	-11.8099
5_0	-11.8099
▁Fecha	-11.8099
▁resolvido	-11.8099
▁parametrização	-11.8099
▁mantenh	-11.8099
▁500€	-11.8099
▁aerodin	-11.8099
▁organizado	-11.8099
▁camp	-11.8099
▁inspiração	-11.8099
▁palms	-11.8099
NDA	-11.81
▁hun	-11.81
▁agua	-11.81
▁acus	-11.81
▁Compensa	-11.81
▁caguei	-11.81
▁toler	-11.81
▁brave	-11.81
▁matter	-11.81
▁vagas	-11.81
▁assustar	-11.81
▁Sessão	-11.81
▁19:35	-11.81
▁Ahahahahahahah	-11.81
▁sources	-11.81
▁troque	-11.81
▁expetativa	-11.81
▁Gotcha	-11.8101
▁batido	-11.8101
▁bueeeee	-11.8101
▁China	-11.8101
▁consci	-11.8101
▁foda	-11.8101
hub	-11.8101
ggggggggggggg	-11.8101
▁Icónica	-11.8101
▁Levo	-11.8101
▁Agradecia	-11.8101
▁explicador	-11.8101
nimal	-11.8101
▁cough	-11.8101
Apple	-11.8102
▁janto	-11.8102
▁veste	-11.8102
▁reason	-11.8102
▁pilot	-11.8102
▁ahahahahahah	-11.8102
▁Yeyyy	-11.8102
▁asiático	-11.8102
^2+	-11.8102
▁outcome	-11.8102
ahahaahh	-11.8102
▁levanto	-11.8103
▁Dourad	-11.8103
▁encontrava	-11.8103
▁centrad	-11.8103
▁involuntário	-11.8103
▁constipada	-11.8103
diogo	-11.8103
trong	-11.8103
▁estima	-11.8103
▁cozinh	-11.8103
▁Norte	-11.8103
▁fraco	-11.8104
▁controlado	-11.8104
▁Felizmente	-11.8104
▁Cuddling	-11.8104
▁lambe	-11.8104
tanas	-11.8104
▁Perguntei	-11.8105
▁consideração	-11.8105
▁sermão	-11.8105
▁wannabe	-11.8105
▁Ufa	-11.8105
Multi	-11.8105
▁front	-11.8106
▁susp	-11.8106
▁negar	-11.8106
UCK	-11.8106
▁larry	-11.8106
▁espada	-11.8106
1&#125;&#123;3	-11.8106
▁quadrado	-11.8107
▁decote	-11.8107
▁dorido	-11.8107
▁1000€	-11.8107
arcelo	-11.8107
fron	-11.8107
inador	-11.8107
▁virilha	-11.8108
▁hand	-11.8108
▁irónico	-11.8108
▁ofereceram	-11.8108
chael	-11.8108
▁Metro	-11.8108
▁laura	-11.8109
▁paisagem	-11.8109
▁Realmente	-11.8109
▁expliquei	-11.8109
▁católica	-11.8109
▁faceis	-11.8109
▁cobra	-11.8109
▁feed	-11.811
▁assada	-11.811
ject	-11.811
ceira	-11.811
▁morto	-11.8111
▁hair	-11.8111
▁exagerar	-11.8111
▁novembro	-11.8111
▁primária	-11.8111
▁❄	-11.8111
▁😳	-11.8111
▁reci	-11.8111
▁comercial	-11.8111
ltima	-11.8111
▁QUER	-11.8112
▁insultar	-11.8112
▁renovar	-11.8112
▁reclamar	-11.8112
▁Acabaram	-11.8112
▁14€	-11.8112
▁gun	-11.8112
▁estragado	-11.8112
▁necessário	-11.8112
▁sintomas	-11.8113
▁entendo	-11.8113
▁Soon	-11.8114
ustainable	-11.8114
▁1:30	-11.8114
quantit	-11.8114
▁senhoria	-11.8115
▁setembro	-11.8115
iguel	-11.8115
▁6€	-11.8115
▁11°	-11.8115
▁dramática	-11.8116
▁transmiti	-11.8116
▁organizada	-11.8116
▁Sentes	-11.8116
▁reagiu	-11.8117
aaaahhh	-11.8117
▁Fart	-11.8117
cionar	-11.8117
▁2:30	-11.8117
▁jantaste	-11.8118
▁bebeda	-11.8118
▁legenda	-11.8119
▁canso	-11.812
▁friendly	-11.812
▁✋	-11.812
▁Anal	-11.812
▁selecionada	-11.8121
▁tentava	-11.8121
good	-11.8121
▁Real	-11.8122
▁adiantar	-11.8122
▁ultrapassar	-11.8122
▁países	-11.8122
▁tirava	-11.8122
tail	-11.8124
cala	-11.8124
▁falece	-11.8124
▁pente	-11.8124
inuto	-11.8126
▁francesa	-11.8126
▁apoia	-11.8126
▁alinha	-11.8126
gnit	-11.8127
▁Doeu	-11.8127
▁pati	-11.8127
▁instala	-11.8128
▁Natal	-11.8128
▁8€	-11.8129
▁conhecemos	-11.8129
▁bone	-11.8129
▁trazes	-11.8129
▁perdemos	-11.8129
▁interessado	-11.813
▁hahaha	-11.813
*(	-11.813
▁doritos	-11.8132
▁RI	-11.8132
▁apoiar	-11.8132
▁filmar	-11.8132
▁trust	-11.8133
paguei	-11.8134
▁fizermos	-11.8134
▁multiplica	-11.8134
▁arrependi	-11.8136
▁rolo	-11.8136
▁íris	-11.8136
▁hopefully	-11.8136
▁saldanha	-11.8136
▁💚	-11.8136
▁😴	-11.8136
▁gomas	-11.8137
▁perigoso	-11.8137
▁eats	-11.8137
▁Mario	-11.8138
▁ressonar	-11.8138
▁Adora	-11.8138
▁blessed	-11.8139
▁boss	-11.8139
▁Bio	-11.814
▁live	-11.814
▁sorteio	-11.814
▁Acordada	-11.8142
melia	-11.8142
▁Aaahhh	-11.8143
▁Nenhuma	-11.8143
▁funcionava	-11.8143
VA	-11.8143
▁leão	-11.8143
▁dourad	-11.8144
▁Aaaaaaah	-11.8145
mestre	-11.8146
▁delegate	-11.8146
▁fire	-11.8149
▁esqueceste	-11.8151
▁escreveu	-11.8151
coração	-11.8151
▁completa	-11.8152
▁anis	-11.8152
▁executar	-11.8152
▁provei	-11.8153
ticamente	-11.8153
▁New	-11.8153
246	-11.8154
▁sentiste	-11.8154
▁sooooo	-11.8155
▁Liar	-11.8156
▁Passava	-11.8156
frent	-11.8158
▁dure	-11.8158
▁sobra	-11.8158
william	-11.8159
;1-	-11.816
▁LI	-11.816
▁solar	-11.816
▁Dead	-11.8161
▁reli	-11.8161
idinho	-11.8162
▁voar	-11.8164
▁explícit	-11.8166
irst	-11.8166
▁suppose	-11.817
▁lua	-11.8171
▁Fly	-11.8173
▁copiar	-11.8173
▁estude	-11.8174
VC	-11.8175
▁acharam	-11.8175
NG	-11.8175
NL	-11.8176
▁conheceste	-11.8178
NK	-11.8178
▁calado	-11.8178
▁queremos	-11.8179
lkr	-11.818
JN	-11.8181
ESS	-11.8182
▁guiar	-11.8184
aquel	-11.8187
jZ	-11.819
▁job	-11.819
PL	-11.819
▁tfa	-11.8191
hould	-11.8192
yyyyyyy	-11.8193
EZ	-11.8193
▁queixares	-11.8194
queixaste	-11.8194
▁aziad	-11.8196
bullying	-11.8197
▁sabendo	-11.8198
▁canta	-11.82
jN	-11.8201
▁mudava	-11.8203
▁expon	-11.8204
▁ligaste	-11.8204
▁extremo	-11.8205
▁variar	-11.8205
CW	-11.8208
▁bocad	-11.8212
HT	-11.8212
▁Sext	-11.8212
▁Byeeeee	-11.8213
▁fixr	-11.8214
▁mostrado	-11.8215
▁Bec	-11.8215
▁esqueceu	-11.8215
▁acabasse	-11.822
▁tq	-11.822
musk	-11.822
▁Had	-11.8223
▁responderam	-11.8224
FC	-11.8226
▁bag	-11.8227
ella	-11.823
▁reta	-11.8233
▁Up	-11.8238
▁saísse	-11.824
▁bata	-11.8242
▁saberá	-11.8244
alert	-11.8245
▁Pin	-11.8245
▁tuist	-11.8246
▁irritar	-11.8248
▁mexi	-11.8248
úli	-11.8249
▁decidirmos	-11.8251
▁PT	-11.8252
calça	-11.8253
▁tirasse	-11.8254
▁Nooooo	-11.8254
▁Put	-11.8254
▁largar	-11.8258
BF	-11.8258
▁MU	-11.8264
Cur	-11.8265
kR	-11.8269
▁continuarei	-11.8271
▁ligaram	-11.8275
756	-11.8276
precisam	-11.8281
▁mimir	-11.8284
xL	-11.8287
▁banda	-11.8294
▁pano	-11.8299
water	-11.83
▁Fazia	-11.8301
oooool	-11.8309
▁rara	-11.831
alls	-11.8315
Lc	-11.8322
Xl	-11.8327
perma	-11.834
lhar	-11.8349
ITO	-11.835
▁camara	-11.8351
sistente	-11.8353
............	-11.8353
▁desformata	-11.8357
incluído	-11.836
▁Meia	-11.8362
Gc	-11.8363
▁Sexo	-11.8365
▁desorganiza	-11.8367
stacionei	-11.838
▁comiss	-11.8398
▁ced	-11.84
sters	-11.8404
trial	-11.8417
pingo	-11.8426
comments	-11.8427
▁morder	-11.8433
▁anti	-11.8434
▁mandasse	-11.8437
ssaltada	-11.8438
trof	-11.8445
tha	-11.8446
ffs	-11.8461
oooooow	-11.8464
▁Reza	-11.8474
▁referen	-11.8476
▁atrasa	-11.8479
canela	-11.8485
▁Hora	-11.8514
▁falhar	-11.8519
ZY	-11.852
▁Baixa	-11.852
▁respondia	-11.8537
▁pare	-11.8541
TV	-11.8594
▁helloo	-11.8598
cios	-11.8604
aaaamn	-11.8609
▁col	-11.8609
▁paste	-11.862
gmail	-11.8629
▁retira	-11.8634
▁pessima	-11.8636
▁Dur	-11.8652
▁Simples	-11.8657
▁poderá	-11.8675
xal	-11.8677
▁passiv	-11.8695
▁cumprimentar	-11.8697
▁grind	-11.8703
tirar	-11.8715
▁Mari	-11.8736
▁Daquel	-11.875
erim	-11.8753
okes	-11.8761
▁text	-11.8767
265	-11.8783
▁sext	-11.8802
▁liso	-11.8803
▁dormisse	-11.8833
1%	-11.8842
oooooooo	-11.8847
NN	-11.8856
▁boyyyyy	-11.8867
▁cita	-11.8872
pace	-11.889
prestei	-11.8913
▁wi	-11.8913
▁desconta	-11.8913
uagem	-11.8918
▁Liv	-11.892
kE	-11.8925
ulas	-11.8932
▁prest	-11.8933
MAD	-11.8969
▁Mostro	-11.8987
▁dispost	-11.8989
gueira	-11.8996
!!!!!!!	-11.9006
▁moto	-11.9011
jor	-11.9037
liquei	-11.9075
inner	-11.9092
had	-11.9107
lheira	-11.9107
▁Gasta	-11.9143
669	-11.9152
etty	-11.9157
incidência	-11.9172
bout	-11.9176
▁aperto	-11.9182
885	-11.9195
▁kat	-11.9197
chat	-11.9199
▁busc	-11.9224
ask	-11.9236
▁reagis	-11.9276
▁desencrav	-11.9296
umprimentos	-11.9353
▁yaaa	-11.937
ife	-11.9373
NX	-11.9399
Bsr	-11.9421
intura	-11.9448
VJ	-11.9511
448	-11.9516
▁recorr	-11.9566
ahhahahaha	-11.9602
correr	-11.9604
▁Ahahahhahaha	-11.9605
tough	-11.9605
▁Mostr	-11.9635
▁reagi	-11.9643
▁corresponder	-11.9655
▁altera	-11.9656
theta	-11.969
rror	-11.9694
aaaaaaaaaaaaaa	-11.9694
(1/	-11.9732
conquistado	-11.9763
▁hist	-11.9797
▁reformul	-11.9929
611	-11.9938
4%	-11.9957
▁Sureeee	-12
onas	-12.0004
esponsável	-12.0005
nside	-12.0024
aft	-12.0088
▁voltasse	-12.0113
▁Identifica	-12.0124
▁plan	-12.0158
ene	-12.0175
versa	-12.0238
olleen	-12.0252
▁implic	-12.0309
▁9.3	-12.0347
▁descontar	-12.0395
▁consider	-12.0401
▁discuti	-12.0499
▁proporciona	-12.0501
▁selecion	-12.0543
▁abraçad	-12.055
▁refere	-12.0562
▁Pic	-12.0618
▁Acord	-12.062
71/	-12.0624
special	-12.0624
▁animado	-12.0628
todd	-12.0641
▁aconselh	-12.0641
▁pessim	-12.0724
crime	-12.0734
▁ajud	-12.076
aul	-12.0785
▁trabalh	-12.0805
▁exi	-12.0806
unnnn	-12.086
▁poup	-12.0861
nstalei	-12.091
intei	-12.0911
▁Tchi	-12.0936
ooooow	-12.0955
store	-12.1004
aile	-12.1007
▁galo	-12.1043
▁superfici	-12.109
▁perc	-12.1125
25€	-12.1129
eeeeeeeeeeee	-12.1129
sperm	-12.1136
▁Aceita	-12.1145
lmocei	-12.1153
▁Pergunt	-12.1157
▁pô	-12.1178
▁matri	-12.1182
plicado	-12.1183
▁past	-12.1184
▁Aula	-12.1189
tentar	-12.119
rograma	-12.119
games	-12.1194
▁almoç	-12.1196
âmi	-12.1198
lheres	-12.1202
▁Beijinho	-12.1205
photo	-12.1206
▁saudade	-12.1206
▁boob	-12.1221
cional	-12.1228
▁Decid	-12.124
▁bast	-12.1248
cuddl	-12.1257
▁perceb	-12.1258
▁read	-12.1263
▁Suuu	-12.1268
borrece	-12.1278
▁whi	-12.1278
grow	-12.1279
▁compil	-12.1305
ahahah	-12.1317
▁Olaaa	-12.1323
▁pont	-12.1324
verything	-12.1326
pizza	-12.1326
posição	-12.1327
▁demonstra	-12.1335
▁Ahahahahhaha	-12.1336
project	-12.134
🍑	-12.134
🧡	-12.134
ipho	-12.1341
🌙	-12.1342
Casa	-12.1344
💞	-12.1345
calma	-12.1345
world	-12.1345
abril	-12.1346
download	-12.1346
🌟	-12.1347
continente	-12.1347
massagens	-12.1348
well	-12.1348
exp	-12.1348
reunião	-12.1348
sexta	-12.1349
Quero	-12.1349
Podes	-12.1349
estudar	-12.1349
Também	-12.1349
à	-12.1349
massagem	-12.1349
quase	-12.1349
Mesmo	-12.1349
Então	-12.1349
fotografia	-12.1349
okay	-12.135
ency	-12.135
muito	-12.1351
link	-12.1351
sinal	-12.1352
carregar	-12.1353
confi	-12.1354
maior	-12.1354
agora	-12.1358
gerir	-12.1358
Como	-12.1358
▁Envi	-12.1362
ional	-12.1365
follow	-12.1367
000€	-12.1371
Isso	-12.1371
▁resson	-12.1373
▁exce	-12.1373
▁caval	-12.1376
assim	-12.1377
life	-12.1378
▁period	-12.1379
job	-12.1382
▁prepara	-12.1383
▁devolv	-12.1386
▁adianta	-12.1393
▁ultrapassa	-12.1395
▁foca	-12.1396
▁verifica	-12.1396
▁aumenta	-12.1396
▁legend	-12.1397
saia	-12.1398
▁ocorr	-12.1398
▁prai	-12.1398
tainable	-12.1402
▁quand	-12.1404
▁custo	-12.1407
▁kind	-12.1407
clara	-12.1408
▁nã	-12.1409
▁desperta	-12.1409
▁candidata	-12.141
princip	-12.141
▁explique	-12.1412
niz	-12.1412
▁aguente	-12.1413
▁engane	-12.1413
▁apanhe	-12.1413
▁pormenor	-12.1414
Product	-12.1414
▁relembr	-12.1415
õ	-12.1415
▁propor	-12.1417
▁materia	-12.1417
notif	-12.1418
▁Yeeeeyyy	-12.1419
▁cuida	-12.142
▁constipa	-12.1421
ística	-12.1421
▁inform	-12.1423
▁desperdiç	-12.1424
lorença	-12.1424
▁discuss	-12.1425
▁constante	-12.1425
▁revis	-12.1425
Point	-12.1426
▁organis	-12.1426
riggered	-12.1426
▁prat	-12.1426
▁than	-12.1426
▁bless	-12.1426
▁assust	-12.1426
▁stalk	-12.1427
fficial	-12.1427
▁ligue	-12.1427
cencia	-12.1427
.10737418	-12.1427
amisola	-12.1427
▁river	-12.1427
anquecas	-12.1427
alavras	-12.1427
ificil	-12.1427
amsung	-12.1427
hotoshop	-12.1427
▁orgulho	-12.1428
obrigatori	-12.1428
▁Inicia	-12.1428
▁chapa	-12.1428
Brooklyn	-12.1429
IwAR	-12.1429
categor	-12.1429
▁prejudi	-12.1429
experienc	-12.1429
_________	-12.1429
▁equival	-12.1429
gggggggggg	-12.1429
🤠	-12.1429
🤤	-12.1429
Papel	-12.1429
▁julg	-12.1429
AAHHHH	-12.1429
wetransfer	-12.1429
▁Arruma	-12.1429
▁Magoaste	-12.1429
▁distribui	-12.1429
▁independent	-12.1429
▁sacrific	-12.1429
▁speech	-12.1429
abeleireira	-12.1429
bloquear	-12.1429
compreensiv	-12.1429
dddddddddddddddd	-12.1429
desinstalar	-12.1429
encripta	-12.1429
ilmour	-12.1429
lvalade	-12.1429
móveis	-12.1429
ngenheira	-12.1429
nunciar	-12.1429
onference	-12.1429
onóculo	-12.1429
ortunately	-12.1429
régua	-12.1429
throwback	-12.1429
usufrui	-12.1429
utocorrect	-12.1429
últipl	-12.1429
▁1/(1+	-12.1429
▁9:39	-12.1429
▁ASSIM	-12.1429
▁Adeeeus	-12.1429
▁Algarve	-12.1429
▁Atraente	-12.1429
▁Attractive	-12.1429
▁Bigode	-12.1429
▁Bruna	-12.1429
▁Bélgica	-12.1429
▁Cachecol	-12.1429
▁Cacém	-12.1429
▁Cláudia	-12.1429
▁Curioso	-12.1429
▁Direction	-12.1429
▁Embarrassi	-12.1429
▁Encrav	-12.1429
▁Excuse	-12.1429
▁Expectável	-12.1429
▁Funcion	-12.1429
▁Grelha	-12.1429
▁Healthy	-12.1429
▁Henrique	-12.1429
▁Hmmmmmmmmmmmmm	-12.1429
▁Hogwarts	-12.1429
▁IPhO	-12.1429
▁Impressed	-12.1429
▁Inscrev	-12.1429
▁Kebab	-12.1429
▁Klein	-12.1429
▁Lourenço	-12.1429
▁Lyrics	-12.1429
▁Língua	-12.1429
▁Matosinhos	-12.1429
▁Música	-12.1429
▁Notícias	-12.1429
▁Obviously	-12.1429
▁Outlander	-12.1429
▁Pormenores	-12.1429
▁President	-12.1429
▁Priori	-12.1429
▁Prioridades	-12.1429
▁Progressos	-12.1429
▁Rebelde	-12.1429
▁Ryanair	-12.1429
▁Shaaame	-12.1429
▁Shrek	-12.1429
▁Shush	-12.1429
▁Sortuda	-12.1429
▁Stooooop	-12.1429
▁Sweat	-12.1429
▁Série	-12.1429
▁Taylor	-12.1429
▁Trouxe	-12.1429
▁adiantei	-12.1429
▁advance	-12.1429
▁afirmação	-12.1429
▁alcunha	-12.1429
▁amigdalite	-12.1429
▁análise	-12.1429
▁aparecido	-12.1429
▁attention	-12.1429
▁averigu	-12.1429
▁babies	-12.1429
▁balança	-12.1429
▁banhar	-12.1429
▁beijava	-12.1429
▁biafine	-12.1429
▁biscoito	-12.1429
▁botins	-12.1429
▁budget	-12.1429
▁buffet	-12.1429
▁buraquinho	-12.1429
▁cachorro	-12.1429
▁caleidoscópio	-12.1429
▁capítulo	-12.1429
▁característic	-12.1429
▁certific	-12.1429
▁choose	-12.1429
▁chrome	-12.1429
▁citizen	-12.1429
▁ciúmes	-12.1429
▁coliseu	-12.1429
▁complicações	-12.1429
▁comportamento	-12.1429
▁compreensível	-12.1429
▁comunhão	-12.1429
▁confortáveis	-12.1429
▁contratempo	-12.1429
▁contínuo	-12.1429
▁convergência	-12.1429
▁croissant	-12.1429
▁cruel	-12.1429
▁cruzadas	-12.1429
▁crítica	-12.1429
▁curioso	-12.1429
▁dalmata	-12.1429
▁degraus	-12.1429
▁descamar	-12.1429
▁desconect	-12.1429
▁descontrola	-12.1429
▁dificeis	-12.1429
▁disappoint	-12.1429
▁discutem	-12.1429
▁disponibili	-12.1429
▁distração	-12.1429
▁divorci	-12.1429
▁domínio	-12.1429
▁dunkirk	-12.1429
▁edifício	-12.1429
▁emagrece	-12.1429
▁encaminha	-12.1429
▁endereço	-12.1429
▁envelope	-12.1429
▁episode	-12.1429
▁escroto	-12.1429
▁especifico	-12.1429
▁específica	-12.1429
▁espontâne	-12.1429
▁estrelinha	-12.1429
▁europeia	-12.1429
▁evaluation	-12.1429
▁evolved	-12.1429
▁exageremos	-12.1429
▁exageres	-12.1429
▁exaltado	-12.1429
▁excitedddd	-12.1429
▁exercitar	-12.1429
▁faculdade	-12.1429
▁feijões	-12.1429
▁feminina	-12.1429
▁fofinha	-12.1429
▁foguetão	-12.1429
▁fígado	-12.1429
▁físico	-12.1429
▁garfo	-12.1429
▁gengiva	-12.1429
▁glitter	-12.1429
▁gémea	-12.1429
▁hamburguer	-12.1429
▁havaiana	-12.1429
▁hurry	-12.1429
▁identidade	-12.1429
▁impermeável	-12.1429
▁impressionar	-12.1429
▁incentivo	-12.1429
▁incompleta	-12.1429
▁incompleto	-12.1429
▁incêndio	-12.1429
▁influencia	-12.1429
▁insistir	-12.1429
▁interrogação	-12.1429
▁interromper	-12.1429
▁introdução	-12.1429
▁jackson	-12.1429
▁judge	-12.1429
▁judging	-12.1429
▁justificar	-12.1429
▁juventude	-12.1429
▁knorr	-12.1429
▁koala	-12.1429
▁lamechas	-12.1429
▁lampugnano	-12.1429
▁laurent	-12.1429
▁lenhador	-12.1429
▁livestream	-12.1429
▁loucura	-12.1429
▁lúcido	-12.1429
▁maravilha	-12.1429
▁marmelada	-12.1429
▁medicina	-12.1429
▁mensalidades	-12.1429
▁meteorologia	-12.1429
▁milagros	-12.1429
▁mistério	-12.1429
▁mobilidade	-12.1429
▁moderadamente	-12.1429
▁monhés	-12.1429
▁montaditos	-12.1429
▁multibanco	-12.1429
▁máxima	-12.1429
▁mútuo	-12.1429
▁nalguma	-12.1429
▁nugget	-12.1429
▁nutella	-12.1429
▁ocasião	-12.1429
▁oferecido	-12.1429
▁outlander	-12.1429
▁panicar	-12.1429
▁pascoa	-12.1429
▁pavilhão	-12.1429
▁penúltim	-12.1429
▁pipoquinha	-12.1429
▁polegar	-12.1429
▁precisão	-12.1429
▁preencher	-12.1429
▁presets	-12.1429
▁princesa	-12.1429
▁prolonga	-12.1429
▁pumped	-12.1429
▁pureza	-12.1429
▁queimadura	-12.1429
▁quinze	-12.1429
▁rebelde	-12.1429
▁recapitula	-12.1429
▁recolha	-12.1429
▁recommend	-12.1429
▁reconheç	-12.1429
▁religiosa	-12.1429
▁rodolfo	-12.1429
▁rolantes	-12.1429
▁romântica	-12.1429
▁saggy	-12.1429
▁satélite	-12.1429
▁secundária	-12.1429
▁sheldon	-12.1429
▁silêncio	-12.1429
▁simular	-12.1429
▁sincroniza	-12.1429
▁socorros	-12.1429
▁sonâmbul	-12.1429
▁squeezy	-12.1429
▁subtrair	-12.1429
▁successful	-12.1429
▁tabaco	-12.1429
▁tambien	-12.1429
▁testosterona	-12.1429
▁tradição	-12.1429
▁transparente	-12.1429
▁trippy	-12.1429
▁tímid	-12.1429
▁título	-12.1429
▁variável	-12.1429
▁wareztuga	-12.1429
▁zangada	-12.1429
▁zayn	-12.1429
▁Óleo	-12.1429
▁íntimo	-12.1429
▁👉👌	-12.1429
⭐	-12.1429
👊	-12.1429
😠	-12.1429
😰	-12.1429
▁Anyway	-12.1429
▁admira	-12.1429
▁alright	-12.1429
▁atencioso	-12.1429
▁atenções	-12.1429
▁campinácios	-12.1429
▁candeeiro	-12.1429
▁comichão	-12.1429
▁convidado	-12.1429
▁deicidi	-12.1429
▁descubr	-12.1429
▁desinfestaç	-12.1429
▁desporto	-12.1429
▁exagerad	-12.1429
▁hidrata	-12.1429
▁hipó	-12.1429
▁interrompid	-12.1429
▁inverno	-12.1429
▁necessar	-12.1429
▁pertence	-12.1429
▁podcast	-12.1429
▁restrict	-12.1429
▁shinn	-12.1429
▁suicido	-12.1429
scooter	-12.1429
scuteiros	-12.1429
áveis	-12.1429
▁17:52	-12.1429
▁75€	-12.1429
▁Before	-12.1429
▁Brinc	-12.1429
▁Crazy	-12.1429
▁Desligo	-12.1429
▁Fernand	-12.1429
▁Instala	-12.1429
▁Lucy	-12.1429
▁Sneak	-12.1429
▁Winning	-12.1429
▁acidental	-12.1429
▁aparente	-12.1429
▁baixinh	-12.1429
▁decisões	-12.1429
▁derrota	-12.1429
▁desrespeita	-12.1429
▁dilema	-12.1429
▁esforce	-12.1429
▁exhaust	-12.1429
▁neuro	-12.1429
▁pulmões	-12.1429
▁rapper	-12.1429
▁remodela	-12.1429
▁retiro	-12.1429
▁roller	-12.1429
▁speechless	-12.1429
▁sénior	-12.1429
▁transformaç	-12.1429
▁typing	-12.1429
▁uterus	-12.1429
▁votações	-12.1429
😜	-12.1429
berdade	-12.1429
protegi	-12.1429
Θ	-12.1429
▁Propz	-12.1429
▁Sortudo	-12.1429
▁boné	-12.1429
▁formulário	-12.1429
▁kiddo	-12.1429
▁lenço	-12.1429
▁panico	-12.1429
OOO	-12.1429
▁Brave	-12.1429
▁Cristo	-12.1429
▁PASS	-12.1429
▁Treina	-12.1429
▁WTF	-12.1429
▁cães	-12.1429
▁desligo	-12.1429
▁embarque	-12.1429
▁experiencia	-12.1429
▁fotografar	-12.1429
▁gritou	-12.1429
▁happi	-12.1429
▁heater	-12.1429
▁indiana	-12.1429
▁jorge	-12.1429
▁ligeiro	-12.1429
▁mommy	-12.1429
▁salvamento	-12.1429
💝	-12.1429
▁Almada	-12.1429
▁GMS	-12.1429
▁Troca	-12.1429
▁convenciona	-12.1429
▁editada	-12.1429
▁ejacul	-12.1429
▁eletrónic	-12.1429
▁flick	-12.1429
▁julgues	-12.1429
▁relações	-12.1429
▁amadora	-12.143
▁desligada	-12.143
▁training	-12.143
beauty	-12.143
etribui	-12.143
▁Cinzenta	-12.143
▁flight	-12.143
▁gemido	-12.143
▁persua	-12.143
▁😍😍😍😍	-12.143
mebiol	-12.143
▁Perfeit	-12.143
▁activ	-12.143
▁duomo	-12.143
▁elástico	-12.143
▁floor	-12.143
▁input	-12.143
▁obceca	-12.143
▁protect	-12.143
▁renasce	-12.143
▁selfless	-12.143
▁sofras	-12.143
▁sudeste	-12.143
▁Beeeeem	-12.143
▁Sevilha	-12.143
▁company	-12.143
▁endireitar	-12.143
▁melodia	-12.143
▁Choose	-12.143
▁Mousse	-12.143
▁bright	-12.143
▁fantasm	-12.143
▁handjob	-12.143
▁moedas	-12.143
▁sostra	-12.143
▁Weirddd	-12.143
▁dedicada	-12.143
▁depriv	-12.143
▁fortran	-12.143
nsulto	-12.143
▁cortina	-12.143
student	-12.143
▁$\	-12.143
▁boooom	-12.143
▁oponho	-12.143
▁Minimeu	-12.143
▁convite	-12.143
▁resume	-12.143
▁💕💕💕	-12.143
▁rouca	-12.143
▁sevilha	-12.143
▁yaaaay	-12.143
▁aquário	-12.143
▁desperd	-12.143
▁essencial	-12.143
▁nerf	-12.143
▁percevejo	-12.143
▁2014	-12.143
▁espreme	-12.143
▁tampão	-12.143
distance	-12.143
sociais	-12.143
▁Next	-12.143
▁environmentally	-12.143
▁impedi	-12.143
▁session	-12.143
▁categoria	-12.143
▁embrulhar	-12.143
▁válido	-12.143
▁caneta	-12.143
child	-12.143
=2018-12-02	-12.143
hift	-12.143
ortnite	-12.143
▁divergencia	-12.143
▁retard	-12.143
▁gonca	-12.143
▁Kay	-12.143
▁Yeeyyy	-12.143
▁aerotec	-12.143
▁calçado	-12.143
taaaanto	-12.143
/2015	-12.143
▁Aquece	-12.143
▁ajusta	-12.143
▁biologi	-12.143
▁listen	-12.143
▁limao	-12.143
▁teddy	-12.143
ween	-12.143
brantes	-12.143
ndireitadas	-12.143
arrasar	-12.143
▁trofa	-12.143
▁veludo	-12.143
▁drama	-12.143
▁vaselina	-12.143
légio	-12.143
unfair	-12.143
▁bagagem	-12.143
▁Apreci	-12.143
▁bordo	-12.143
▁lasef	-12.143
people	-12.143
▁Gala	-12.143
▁ocean	-12.143
heirinho	-12.143
=2018-1	-12.143
▁batedeira	-12.143
▁escusa	-12.143
▁hour	-12.143
▁veado	-12.143
▁Volto	-12.143
▁particula	-12.143
▁perturbador	-12.143
overth	-12.143
▁genuin	-12.143
▁Faltei	-12.143
▁lidl	-12.143
▁Naaao	-12.143
▁deposita	-12.143
▁Tanta	-12.143
INHA	-12.143
▁outono	-12.143
▁relationship	-12.143
▁linear	-12.143
▁aterrar	-12.143
▁miuda	-12.143
▁rui	-12.143
▁intenções	-12.143
▁scrip	-12.143
▁orgulhosa	-12.143
▁pants	-12.143
qmq	-12.143
amuel	-12.143
▁exaust	-12.143
▁KFC	-12.143
▁perfecionista	-12.143
▁regime	-12.143
▁desenhas	-12.143
▁apareço	-12.143
▁assume	-12.143
▁dirty	-12.143
▁Neves	-12.143
▁Halloween	-12.143
▁painful	-12.143
governo	-12.143
▁congelado	-12.143
▁nevar	-12.143
▁Coitadinho	-12.143
▁*21	-12.143
▁definitivo	-12.143
▁Caloira	-12.143
▁Amador	-12.143
▁August	-12.143
▁acalmar	-12.143
culture	-12.143
▁salient	-12.143
máx	-12.143
▁Unlike	-12.1431
▁horario	-12.1431
onvém	-12.1431
3168	-12.1431
▁Nerd	-12.1431
▁circun	-12.1431
▁procure	-12.1431
▁frequentemente	-12.1431
fetish	-12.1431
▁muuuuui	-12.1431
▁narsa	-12.1431
▁demonstrações	-12.1431
▁Resumindo	-12.1431
▁Adiciona	-12.1431
▁Inscrições	-12.1431
▁inevitável	-12.1431
▁almoçava	-12.1431
▁custe	-12.1431
▁gritos	-12.1431
▁confusões	-12.1431
▁runn	-12.1431
▁booty	-12.1431
▁upset	-12.1431
galdana	-12.1431
terapia	-12.1431
▁pêlos	-12.1431
▁pepperoni	-12.1431
▁centimo	-12.1431
▁hook	-12.1431
▁acender	-12.1431
149	-12.1431
▁balões	-12.1431
▁legs	-12.1431
▁salvar	-12.1431
▁graduação	-12.1431
▁orden	-12.1431
▁ctl	-12.1431
4457	-12.1431
▁00:00	-12.1431
▁stand	-12.1431
▁Daniel	-12.1431
idPhone	-12.1431
▁busy	-12.1431
▁understandable	-12.1432
▁Barba	-12.1432
▁Enviado	-12.1432
Daily	-12.1432
urious	-12.1432
▁estreito	-12.1432
▁lister	-12.1432
ecret	-12.1432
▁experience	-12.1432
▁marquei	-12.1432
▁ikr	-12.1432
▁gabar	-12.1432
▁Crl	-12.1432
▁planeadas	-12.1432
9:05	-12.1432
▁hú	-12.1432
▁estragar	-12.1432
atarina	-12.1432
▁Problemas	-12.1432
▁Horrível	-12.1432
▁razo	-12.1432
▁Grita	-12.1432
▁materiais	-12.1432
▁piano	-12.1432
▁inocenci	-12.1432
▁Tesla	-12.1432
clismo	-12.1432
▁💕💕	-12.1432
▁exceção	-12.1432
sharing	-12.1432
9454	-12.1433
▁Molho	-12.1433
▁Garant	-12.1433
▁hold	-12.1433
▁ventoinha	-12.1433
▁father	-12.1433
▁crashar	-12.1433
▁presi	-12.1433
▁ereção	-12.1433
▁tarte	-12.1433
▁28€	-12.1433
▁competição	-12.1434
PROJE	-12.1434
▁Resumo	-12.1434
▁17:00	-12.1434
▁odiar	-12.1434
▁explos	-12.1434
▁bernardino	-12.1434
▁produce	-12.1434
▁madeira	-12.1434
▁common	-12.1434
▁verona	-12.1434
▁Stud	-12.1434
▁intense	-12.1434
▁laranja	-12.1434
agrama	-12.1434
▁florença	-12.1435
▁Noite	-12.1435
8204	-12.1435
▁anime	-12.1435
▁Adios	-12.1435
▁Junta	-12.1435
▁Levanta	-12.1435
▁tratamento	-12.1435
▁seguidos	-12.1435
😘😘😘	-12.1435
âni	-12.1435
▁12:15	-12.1435
▁encant	-12.1435
ILE	-12.1436
▁Arranj	-12.1436
ívia	-12.1436
▁elon	-12.1436
ELE	-12.1436
▁evoo	-12.1436
▁19:30	-12.1436
▁viciad	-12.1436
▁Manel	-12.1436
▁eslováquia	-12.1436
▁iniciai	-12.1436
▁alteração	-12.1436
▁durasse	-12.1436
▁gás	-12.1437
▁Ahahahahha	-12.1437
▁shoot	-12.1437
▁inscrições	-12.1437
▁consum	-12.1437
▁sentei	-12.1437
pareceste	-12.1437
▁assembly	-12.1437
/2035	-12.1437
▁analogi	-12.1437
▁negra	-12.1437
Spain	-12.1437
▁vela	-12.1437
39.9948355	-12.1438
▁desapontar	-12.1438
▁lápis	-12.1438
▁succe	-12.1438
▁dieta	-12.1438
▁9:00	-12.1438
▁falsa	-12.1438
vantagens	-12.1438
▁chateie	-12.1438
ezY	-12.1438
▁safely	-12.1438
reakfast	-12.1438
spot	-12.1438
▁chapada	-12.1439
▁enfiar	-12.1439
▁Dumb	-12.1439
98118	-12.1439
▁Popp	-12.1439
▁decida	-12.144
▁cargo	-12.144
ycat	-12.144
▁slow	-12.144
NTI	-12.144
uscul	-12.144
slandes	-12.144
▁canja	-12.144
▁yeeee	-12.144
▁favorita	-12.144
▁19.6	-12.144
▁arder	-12.144
Pontos	-12.144
▁Linda	-12.144
▁imitar	-12.1441
▁pray	-12.1441
▁Siste	-12.1441
▁7:30	-12.1441
▁packed	-12.1441
▁Salva	-12.1441
▁lí	-12.1442
regua	-12.1442
▁chorava	-12.1442
ARS	-12.1442
▁morrendo	-12.1442
▁Nogueira	-12.1442
ginas	-12.1442
▁identificada	-12.1443
transfere	-12.1443
▁interna	-12.1443
artins	-12.1443
▁Yeeeeyyyy	-12.1443
OTA	-12.1443
▁nextE	-12.1443
▁9:15	-12.1443
▁shower	-12.1443
bird	-12.1444
▁oiça	-12.1444
▁10:45	-12.1444
▁correções	-12.1444
▁memori	-12.1444
▁pombo	-12.1444
screver	-12.1444
=51	-12.1444
▁Paco	-12.1445
lisbo	-12.1445
ING	-12.1445
▁lobo	-12.1445
▁apagou	-12.1445
▁compensou	-12.1445
▁identificou	-12.1445
▁trek	-12.1445
▁Pô	-12.1445
▁CHE	-12.1445
▁suave	-12.1446
▁atento	-12.1446
▁papi	-12.1447
▁fô	-12.1447
▁fumo	-12.1447
ERS	-12.1447
sumindo	-12.1447
▁Compara	-12.1447
▁inscrit	-12.1448
▁segura	-12.1448
▁partia	-12.1448
▁kend	-12.1448
▁catá	-12.1448
tlu	-12.1448
917	-12.1449
▁chocado	-12.1449
/125	-12.1449
▁react	-12.1449
▁minimo	-12.1449
▁Riiiii	-12.1449
trac	-12.1449
851	-12.1449
▁Slow	-12.145
▁10:15	-12.145
▁Escu	-12.145
▁yeaaaaa	-12.145
▁aprovou	-12.145
+1)	-12.145
▁política	-12.1451
travess	-12.1451
▁submet	-12.1452
▁exceciona	-12.1452
▁Inten	-12.1453
536	-12.1453
▁inicialmente	-12.1453
folde	-12.1454
▁reparava	-12.1454
ussies	-12.1454
▁Larg	-12.1454
▁watching	-12.1455
▁Perguntaram	-12.1455
propaga	-12.1455
▁guardes	-12.1456
▁SER	-12.1456
▁afetada	-12.1457
▁figured	-12.1457
▁Pago	-12.1457
europa	-12.1457
▁worthy	-12.1458
▁diretamente	-12.1458
ombeiros	-12.1458
▁sê	-12.1458
▁barraca	-12.1458
▁apetecesse	-12.1458
▁tour	-12.1458
▁Morre	-12.1459
▁#2	-12.1459
▁recorde	-12.146
▁cock	-12.146
avourite	-12.146
▁Ganhaste	-12.146
▁tentando	-12.146
▁Beijar	-12.1461
mile	-12.1461
quisit	-12.1461
▁contrato	-12.1461
460	-12.1461
▁KI	-12.1461
▁apple	-12.1461
▁surf	-12.1462
▁playing	-12.1462
▁eyes	-12.1463
▁Esperando	-12.1463
▁trouxeram	-12.1464
▁panda	-12.1464
▁deep	-12.1464
▁arro	-12.1465
chris	-12.1466
▁né	-12.1466
ína	-12.1467
▁soja	-12.1467
projet	-12.1469
▁Mean	-12.1471
▁vasc	-12.1471
▁beeeeee	-12.1473
APE	-12.1473
▁idc	-12.1474
▁solve	-12.1476
compatíveis	-12.1478
nymo	-12.1478
▁Chees	-12.1479
▁Jkkkk	-12.1479
production	-12.1479
▁encostado	-12.148
▁sbe	-12.148
6.2	-12.1481
isney	-12.1481
guts	-12.1482
itter	-12.1482
▁Need	-12.1482
▁hola	-12.1486
▁Bota	-12.1487
issiona	-12.149
▁lisa	-12.1491
438	-12.1491
▁Tmi	-12.1492
cidos	-12.1496
▁notice	-12.1496
▁saaaaaa	-12.1497
▁atrevid	-12.1501
▁nele	-12.1502
▁ginecologi	-12.1502
APP	-12.1507
▁Opaaaaaaaaa	-12.151
▁Bran	-12.1511
drenaline	-12.1511
▁Alapa	-12.1531
▁Tirava	-12.1533
▁Soooo	-12.1536
▁Pouc	-12.1537
▁temporári	-12.1543
▁instalado	-12.1548
aniel	-12.1554
1/0	-12.1555
▁acordasse	-12.1556
▁Ahhahaha	-12.1563
▁Fare	-12.1568
istur	-12.1568
▁atualiza	-12.1573
aining	-12.1575
profess	-12.1577
▁cardi	-12.1581
nâm	-12.1587
certo	-12.1587
ÇA	-12.1589
▁omggggg	-12.1595
helpful	-12.1603
▁vag	-12.1603
paixonei	-12.1608
▁produz	-12.1626
▁operaç	-12.164
cionário	-12.1645
lula	-12.1646
5000€	-12.1649
▁conhecesse	-12.1653
market	-12.1653
▁Tru	-12.1656
▁shape	-12.1658
▁Venez	-12.1659
▁Ahahahahhahahah	-12.1661
order	-12.1666
▁luta	-12.167
▁bebid	-12.1672
broke	-12.1678
▁trabalhador	-12.1694
masala	-12.1698
▁audi	-12.1704
5927	-12.1709
ecido	-12.1711
▁mutua	-12.1723
▁Cry	-12.1742
masturbating	-12.1743
awakens	-12.1789
iveis	-12.1815
owser	-12.1819
hhhhhhhhhhhhhh	-12.1823
▁Escrevi	-12.1833
passe	-12.1834
risco	-12.1849
joao	-12.1858
REI	-12.1863
ravi	-12.1863
arques	-12.1865
avaliar	-12.187
miga	-12.1895
ódi	-12.197
▁estrague	-12.199
NOT	-12.1993
▁Resto	-12.1998
▁Definit	-12.2002
▁conseguisse	-12.202
instalei	-12.203
▁funnn	-12.2033
EVE	-12.2052
errament	-12.2068
ewsletter	-12.2115
▁Aprovad	-12.2129
crop	-12.2144
▁italian	-12.2152
1391	-12.2165
NTE	-12.2169
abel	-12.2285
ICA	-12.2286
▁identifique	-12.2307
marco	-12.2322
Chef	-12.2324
provei	-12.2332
▁matur	-12.2339
rrete	-12.2354
▁abraça	-12.2361
serie	-12.2362
▁Luckyy	-12.2394
▁1.9	-12.2414
vegetariano	-12.2441
328	-12.2448
▁emocionad	-12.2456
▁calmo	-12.247
proporcional	-12.2476
urpreendente	-12.2531
ctic	-12.2533
4901	-12.2534
9€	-12.2603
1#	-12.2608
ritos	-12.2609
▁questionar	-12.2658
▁wan	-12.2663
▁particip	-12.2695
379	-12.2711
▁barb	-12.2736
▁Colle	-12.2765
▁distraí	-12.2807
carreg	-12.2833
▁subti	-12.2834
▁valoriz	-12.2849
▁superficial	-12.2909
896	-12.2961
eeeeeeeee	-12.3055
nimadora	-12.3058
paço	-12.3104
Best	-12.3108
704	-12.3139
▁Claaaaa	-12.3169
chine	-12.3183
unidade	-12.3198
▁respir	-12.3207
uís	-12.3309
8.1	-12.3345
▁stressad	-12.3349
▁Whyyyy	-12.3373
523	-12.3386
▁separad	-12.348
214	-12.3531
▁acelera	-12.3616
▁19:4	-12.3627
▁realizad	-12.3658
femis	-12.3779
pagaste	-12.3823
imate	-12.428
Reg	-12.4354
terações	-12.4367
ebol	-12.4413
▁Ahahhah	-12.4443
▁assalt	-12.45
guentavas	-12.4514
▁adicion	-12.4588
716	-12.4735
azie	-12.4884
ficialmente	-12.4887
▁Frank	-12.4984
▁comple	-12.4987
▁Cere	-12.5102
▁Compr	-12.5138
ntrada	-12.515
▁cumprimenta	-12.5184
▁vivi	-12.5219
▁Escrev	-12.5239
▁Sobreviv	-12.5241
atend	-12.5312
▁Trat	-12.5354
▁estud	-12.5355
▁Aprov	-12.538
▁relativ	-12.5405
▁estacion	-12.5485
▁secç	-12.5498
▁Baix	-12.5527
▁compreend	-12.554
▁Apaga	-12.5606
érica	-12.5678
nner	-12.57
▁result	-12.5715
érico	-12.5738
▁Fil	-12.5783
puls	-12.5805
▁Aprendi	-12.5811
possive	-12.5834
▁america	-12.584
ncluído	-12.5872
▁wrap	-12.5893
725	-12.5917
▁insegura	-12.5988
▁envolv	-12.6013
gosto	-12.6037
parece	-12.6047
plicar	-12.6065
plicação	-12.6074
prender	-12.608
erados	-12.608
delega	-12.6098
▁Ignor	-12.61
urso	-12.6124
ification	-12.6139
verage	-12.6147
descontos	-12.6149
rraial	-12.6155
mazing	-12.6162
lameda	-12.6165
Ç	-12.6174
▁adormeça	-12.6186
▁alergia	-12.6186
▁emblema	-12.6186
▁kebab	-12.6186
▁lyric	-12.6186
▁capacidade	-12.6186
▁brinque	-12.619
▁squat	-12.619
▁lágrima	-12.6197
▁sobrancelha	-12.6197
▁notícia	-12.6197
▁concorre	-12.6205
letter	-12.6226
▁Emprest	-12.6256
ório	-12.626
lassic	-12.627
▁publi	-12.6271
plícita	-12.6273
▁alarm	-12.6276
posed	-12.6278
▁9.5	-12.6283
ffline	-12.6293
▁dividi	-12.6296
http	-12.6302
ending	-12.6313
▁agressiva	-12.6317
▁atrev	-12.6322
▁origin	-12.6324
▁Associa	-12.6326
stúpida	-12.6332
▁alimenta	-12.6334
ngraçada	-12.6334
camara	-12.6336
😘	-12.6336
✋	-12.6338
blessed	-12.6338
hopefully	-12.6339
perigoso	-12.6339
💚	-12.6339
😴	-12.6339
históri	-12.6339
saldanha	-12.6339
íris	-12.634
access	-12.6342
buddy	-12.6342
drink	-12.6342
organiser	-12.6342
café	-12.6343
Team	-12.6343
areeiro	-12.6343
roviso	-12.6343
sabado	-12.6344
interior	-12.6344
😥	-12.6344
shopping	-12.6344
receita	-12.6345
mulher	-12.6345
continue	-12.6345
acidente	-12.6345
messenger	-12.6346
bicicleta	-12.6347
white	-12.6347
puseste	-12.6347
yourself	-12.6347
tirado	-12.6347
tornar	-12.6347
course	-12.6347
preferia	-12.6347
place	-12.6348
guardo	-12.6348
Update	-12.6348
potter	-12.6348
emoji	-12.6348
nacht	-12.6348
grave	-12.6348
frango	-12.6348
namorada	-12.6348
câmara	-12.6349
chuva	-12.6349
afonso	-12.6349
decidi	-12.6349
Verdade	-12.6349
pergunta	-12.6349
vestir	-12.6349
criar	-12.6349
chegou	-12.6349
família	-12.6349
Yep	-12.6349
😊	-12.6349
talvez	-12.6349
À	-12.6349
pronto	-12.6349
Gonçalo	-12.635
pôr	-12.635
segunda	-12.635
Amanhã	-12.635
though	-12.635
Fuck	-12.635
Gosto	-12.635
coisas	-12.635
escolha	-12.635
harry	-12.635
dizer	-12.635
Estou	-12.635
depois	-12.635
Está	-12.635
vlogs	-12.635
Essa	-12.6351
hhahahahahahah	-12.6351
livro	-12.6351
comigo	-12.6351
gostas	-12.6351
ãaaaaaao	-12.6352
Para	-12.6352
▁Naaaaaaah	-12.6356
luis	-12.6357
ecisions	-12.6358
Menorca	-12.6359
Passei	-12.636
ography	-12.6361
▁promis	-12.6367
know	-12.6371
▁Imagin	-12.6371
▁exempl	-12.6372
/2010	-12.6372
filtra	-12.6373
lemanha	-12.6374
traída	-12.6375
previ	-12.6377
▁garanti	-12.6378
public	-12.6379
▁favour	-12.638
mitiu	-12.6385
▁diverti	-12.6386
tembro	-12.6387
ónico	-12.6388
▁espaç	-12.6388
▁independen	-12.6389
whats	-12.6391
▁reclama	-12.6391
▁també	-12.6392
▁necessári	-12.6393
▁insulta	-12.6394
▁fingi	-12.6394
▁renova	-12.6394
▁arrepende	-12.6394
▁impressionad	-12.6395
▁tranquil	-12.6395
▁desmaia	-12.6395
Byee	-12.6396
▁yeaa	-12.6396
▁sessã	-12.6398
▁estragad	-12.6398
▁pleas	-12.6398
crita	-12.6398
▁Faç	-12.6398
▁católic	-12.64
▁produtiv	-12.6402
▁identifico	-12.6404
▁compenso	-12.6404
▁barrig	-12.6404
▁privad	-12.6404
Comp	-12.6406
▁AHAHAHHAHA	-12.6407
▁apago	-12.6407
▁destin	-12.6408
▁gilet	-12.6411
DisplayedPrice	-12.6412
tomia	-12.6412
▁livr	-12.6412
▁desligue	-12.6413
▁apague	-12.6414
▁repare	-12.6414
correu	-12.6415
▁assembl	-12.6417
▁baguet	-12.6417
2018-10-07	-12.6418
▁incrive	-12.6419
▁omggggggggggggg	-12.642
▁regista	-12.642
MXP	-12.642
▁almoc	-12.642
anguage	-12.6421
▁driv	-12.6422
▁PRO	-12.6423
25.0	-12.6423
▁crash	-12.6424
ntervalo	-12.6424
nveja	-12.6424
mpossível	-12.6424
ntegral	-12.6424
▁especifica	-12.6425
ábrica	-12.6425
inuar	-12.6425
▁teóric	-12.6425
Origin	-12.6426
nicialmente	-12.6426
fotograf	-12.6426
ongrats	-12.6426
coberto	-12.6426
ltrapassa	-12.6426
ewi	-12.6426
7353	-12.6426
▁$$	-12.6427
pgrade	-12.6427
erveja	-12.6427
▁gradua	-12.6427
rianças	-12.6427
epperoni	-12.6427
▁sarcas	-12.6427
enuron	-12.6427
inheiro	-12.6428
omething	-12.6428
▁19:3	-12.6428
▁Admi	-12.6428
-1853845	-12.6428
657906	-12.6428
ighlight	-12.6428
elemóvel	-12.6428
acacão	-12.6428
congela	-12.6428
medica	-12.6428
alloween	-12.6428
chila	-12.6428
entira	-12.6428
anteiga	-12.6428
urpresa	-12.6428
elationship	-12.6428
document	-12.6428
▁flui	-12.6429
móvel	-12.6429
▁support	-12.6429
ycling	-12.6429
ictoria	-12.6429
egistado	-12.6429
ápido	-12.6429
▁perigo	-12.6429
aselina	-12.6429
▁oportun	-12.6429
igeiramente	-12.6429
sports	-12.6429
desfocad	-12.6429
▁Basic	-12.6429
147808	-12.6429
42.2	-12.6429
Monthly	-12.6429
mbrulha	-12.6429
amburg	-12.6429
vergencia	-12.6429
-70-300	-12.6429
▁environment	-12.6429
▁soluç	-12.6429
▁underst	-12.6429
▁Anima	-12.6429
-2019/	-12.6429
02145	-12.6429
4-5-6-	-12.6429
49467	-12.6429
59024	-12.6429
Tablet	-12.6429
awareness	-12.6429
telemoveis	-12.6429
5678	-12.6429
utoridade	-12.6429
▁Yeaah	-12.6429
Ú	-12.6429
▁converge	-12.6429
Number	-12.6429
🤩	-12.6429
lgada	-12.6429
aaaaaaahhhhhhh	-12.6429
▁Estrag	-12.6429
Â	-12.6429
Ô	-12.6429
▁Nononono	-12.6429
▁preguiç	-12.6429
hahhahhahaha	-12.6429
▁AbsTol	-12.6429
▁Contrata	-12.6429
▁RelTol	-12.6429
▁aplicada	-12.6429
▁straight	-12.6429
132754	-12.6429
chieve	-12.6429
incidir	-12.6429
strangeiro	-12.6429
struí	-12.6429
▁2013/2014	-12.6429
▁Descreve	-12.6429
▁Oferece	-12.6429
▁Poooooiiiis	-12.6429
▁Ridiculo	-12.6429
▁Subestimas	-12.6429
▁consecutiv	-12.6429
▁desabaf	-12.6429
▁desentupiu	-12.6429
▁desleixar	-12.6429
▁direitinh	-12.6429
▁discret	-12.6429
▁folheto	-12.6429
▁tropeça	-12.6429
▁óbvias	-12.6429
(-1,2,5)	-12.6429
+1:]	-12.6429
/02/2018	-12.6429
217468	-12.6429
53390	-12.6429
5637	-12.6429
7692	-12.6429
=10156	-12.6429
CeU	-12.6429
DADE	-12.6429
EEEEEEEEEEE	-12.6429
George	-12.6429
HAHAHAHAHAHAH	-12.6429
HUuJ	-12.6429
JKJK	-12.6429
OUGH	-12.6429
amndamndamn	-12.6429
ardashian	-12.6429
cadémico	-12.6429
crambled	-12.6429
dAzDCrdN	-12.6429
eehhhh	-12.6429
encaminhei	-12.6429
esthetically	-12.6429
ferecida	-12.6429
findPerson	-12.6429
hahahahahhaha	-12.6429
hexágonos	-12.6429
horóscop	-12.6429
iabbeauty	-12.6429
instantaneamente	-12.6429
intermission	-12.6429
lmondega	-12.6429
luorescente	-12.6429
marrakesh	-12.6429
merdosos	-12.6429
nnoyed	-12.6429
ografia	-12.6429
olômbia	-12.6429
onflitos	-12.6429
pologise	-12.6429
price	-12.6429
raposo	-12.6429
risbee	-12.6429
spairecer	-12.6429
sssssssssss	-12.6429
subscribe	-12.6429
tribuído	-12.6429
ufflepuff	-12.6429
ustificável	-12.6429
uwait	-12.6429
»	-12.6429
è	-12.6429
ógico	-12.6429
φ	-12.6429
—	-12.6429
‘	-12.6429
”	-12.6429
√	-12.6429
∞	-12.6429
▁2+2=4	-12.6429
▁3700€	-12.6429
▁ADOREI	-12.6429
▁AGORA	-12.6429
▁Abriram	-12.6429
▁Acertei	-12.6429
▁Aguarda	-12.6429
▁Ahaahahaha	-12.6429
▁Ahahaahahah	-12.6429
▁Almôndegas	-12.6429
▁Amsterd	-12.6429
▁Answer	-12.6429
▁Araújo	-12.6429
▁Atrevida	-12.6429
▁Atualiz	-12.6429
▁Bolonhesa	-12.6429
▁CERTO	-12.6429
▁CVoo	-12.6429
▁Cansaço	-12.6429
▁Chocolate	-12.6429
▁Churrasco	-12.6429
▁Claire	-12.6429
▁Conceptual	-12.6429
▁Confiança	-12.6429
▁Conquista	-12.6429
▁Cookie	-12.6429
▁Cuidado	-12.6429
▁Código	-12.6429
▁DORMIR	-12.6429
▁Daaaaaaamn	-12.6429
▁Descrição	-12.6429
▁Desenvolve	-12.6429
▁Dezembro	-12.6429
▁Discussão	-12.6429
▁Dunkirk	-12.6429
▁Eduarda	-12.6429
▁Eslováquia	-12.6429
▁Esprenu	-12.6429
▁Estrogido	-12.6429
▁Explain	-12.6429
▁Feijões	-12.6429
▁Figures	-12.6429
▁Filetes	-12.6429
▁Fluidos	-12.6429
▁Fábio	-12.6429
▁Fórmula	-12.6429
▁Galveias	-12.6429
▁General	-12.6429
▁Grammar	-12.6429
▁Hambúrguer	-12.6429
▁Honest	-12.6429
▁Inglês	-12.6429
▁Londres	-12.6429
▁MARIA	-12.6429
▁Maiorca	-12.6429
▁Matilde	-12.6429
▁Maçã	-12.6429
▁Memória	-12.6429
▁Médio	-12.6429
▁Nervous	-12.6429
▁Netflix	-12.6429
▁Nãaaaaaaao	-12.6429
▁Nãaaao	-12.6429
▁Período	-12.6429
▁Pijama	-12.6429
▁Polaroid	-12.6429
▁Portuguesa	-12.6429
▁Preservativos	-12.6429
▁Próximo	-12.6429
▁Puorto	-12.6429
▁QUERID	-12.6429
▁Sampaio	-12.6429
▁Sapadores	-12.6429
▁Sheldon	-12.6429
▁Spotify	-12.6429
▁Stupid	-12.6429
▁Substitui	-12.6429
▁Sugestão	-12.6429
▁Swift	-12.6429
▁Tenciono	-12.6429
▁Toalhitas	-12.6429
▁Trivial	-12.6429
▁Tulicreme	-12.6429
▁Weeeeird	-12.6429
▁Whaaat	-12.6429
▁YEAH	-12.6429
▁YESSS	-12.6429
▁Yeeeeeyyy	-12.6429
▁Zelândia	-12.6429
▁Zuckerberg	-12.6429
▁accomplished	-12.6429
▁account	-12.6429
▁acoustichood	-12.6429
▁admitir	-12.6429
▁adoentado	-12.6429
▁advogado	-12.6429
▁affff	-12.6429
▁alcool	-12.6429
▁alcoólica	-12.6429
▁aldrabado	-12.6429
▁alternativo	-12.6429
▁anakin	-12.6429
▁answer	-12.6429
▁apaixonada	-12.6429
▁aplicava	-12.6429
▁apresentável	-12.6429
▁arrefece	-12.6429
▁artificial	-12.6429
▁assediada	-12.6429
▁assistir	-12.6429
▁astronauta	-12.6429
▁atribuídas	-12.6429
▁attached	-12.6429
▁auriculares	-12.6429
▁autocolante	-12.6429
▁autoestima	-12.6429
▁autografa	-12.6429
▁autorização	-12.6429
▁axilas	-12.6429
▁balanço	-12.6429
▁bisavó	-12.6429
▁borbulhinha	-12.6429
▁bovisa	-12.6429
▁brainwash	-12.6429
▁brasileiro	-12.6429
▁bárbara	-12.6429
▁campismo	-12.6429
▁cerveza	-12.6429
▁chewbacca	-12.6429
▁chupões	-12.6429
▁cinética	-12.6429
▁circunstâncias	-12.6429
▁ciumenta	-12.6429
▁civis	-12.6429
▁clandestin	-12.6429
▁clássica	-12.6429
▁coimbra	-12.6429
▁colegio	-12.6429
▁complicated	-12.6429
▁conexão	-12.6429
▁conforto	-12.6429
▁conhecíamos	-12.6429
▁continuidades	-12.6429
▁contribui	-12.6429
▁contínua	-12.6429
▁converter	-12.6429
▁cortisol	-12.6429
▁coágulo	-12.6429
▁credível	-12.6429
▁criptografia	-12.6429
▁crochet	-12.6429
▁cruáçã	-12.6429
▁curtinho	-12.6429
▁cêntimos	-12.6429
▁deficiente	-12.6429
▁deformada	-12.6429
▁descarrila	-12.6429
▁desconhecido	-12.6429
▁desentupir	-12.6429
▁desleixad	-12.6429
▁desprezo	-12.6429
▁dispositivo	-12.6429
▁distrações	-12.6429
▁divergir	-12.6429
▁dobrik	-12.6429
▁easyjet	-12.6429
▁edgeplay	-12.6429
▁effect	-12.6429
▁egoísta	-12.6429
▁elétrico	-12.6429
▁emagreci	-12.6429
▁embaraçosa	-12.6429
▁embaraçoso	-12.6429
▁encharcad	-12.6429
▁engordei	-12.6429
▁engravidou	-12.6429
▁enquadramento	-12.6429
▁ereader	-12.6429
▁escrevo	-12.6429
▁espermatozóides	-12.6429
▁espinafres	-12.6429
▁estrogido	-12.6429
▁estrutura	-12.6429
▁europeu	-12.6429
▁evacua	-12.6429
▁exclusivo	-12.6429
▁excuse	-12.6429
▁expulso	-12.6429
▁extenso	-12.6429
▁fantastic	-12.6429
▁fertilized	-12.6429
▁flexibilidade	-12.6429
▁fotógrafa	-12.6429
▁fotógrafo	-12.6429
▁fraqueza	-12.6429
▁fraquinho	-12.6429
▁frequência	-12.6429
▁fêmea	-12.6429
▁garanto	-12.6429
▁genética	-12.6429
▁gradient	-12.6429
▁grandinha	-12.6429
▁grindelwald	-12.6429
▁guitarra	-12.6429
▁génova	-12.6429
▁helicóptero	-12.6429
▁hidromel	-12.6429
▁hogwarts	-12.6429
▁implementar	-12.6429
▁incomodo	-12.6429
▁incredibl	-12.6429
▁indireta	-12.6429
▁inexistentes	-12.6429
▁infinito	-12.6429
▁informática	-12.6429
▁intimida	-12.6429
▁invertida	-12.6429
▁isolada	-12.6429
▁jellybeans	-12.6429
▁jesuita	-12.6429
▁justificação	-12.6429
▁keyboard	-12.6429
▁kiddiiiiing	-12.6429
▁knoooow	-12.6429
▁lanyards	-12.6429
▁lençóis	-12.6429
▁limitações	-12.6429
▁lisboeta	-12.6429
▁mainstream	-12.6429
▁matosinhos	-12.6429
▁matrícula	-12.6429
▁mañana	-12.6429
▁middle	-12.6429
▁migalhas	-12.6429
☀	-12.6429
♀	-12.6429
い	-12.6429
す	-12.6429
ま	-12.6429
🇮	-12.6429
🌋	-12.6429
💃	-12.6429
🖤	-12.6429
😅	-12.6429
😕	-12.6429
😚	-12.6429
😤	-12.6429
😻	-12.6429
🙇	-12.6429
🤘	-12.6429
🤞	-12.6429
🦄	-12.6429
し	-12.643
て	-12.643
愛	-12.643
💜	-13.4593
😏	-13.6227
😢	-13.6336
❄	-13.6344
😳	-13.6344
👌	-13.6348
😔	-13.6352
🙏	-13.6352
💛	-13.6353
👋	-13.6354
♥	-13.6354
👅	-13.6354
🤪	-13.6429
🧐	-13.6429
🤓	-13.6429
🤥	-13.6429
🤬	-13.6429
🤯	-13.6429
È	-13.6429
π	-13.6429
‿	-13.6429
↼	-13.6429
♂	-13.6429
⚡	-13.6429
✌	-13.6429
✝	-13.6429
⬆	-13.6429
🇨	-13.6429
🇫	-13.6429
🇳	-13.6429
🇷	-13.6429
🇸	-13.6429
🇺	-13.6429
🌈	-13.6429
🌪	-13.6429
🌶	-13.6429
🍋	-13.6429
🍠	-13.6429
🍼	-13.6429
🎃	-13.6429
🎈	-13.6429
🎤	-13.6429
🏛	-13.6429
🏳	-13.6429
🏻	-13.6429
🐓	-13.6429
🐔	-13.6429
🐥	-13.6429
🐧	-13.6429
🐰	-13.6429
🐱	-13.6429
🐶	-13.6429
🐿	-13.6429
👂	-13.6429
👈	-13.6429
👣	-13.6429
👨	-13.6429
👩	-13.6429
👴	-13.6429
👻	-13.6429
👽	-13.6429
💂	-13.6429
💌	-13.6429
💤	-13.6429
💸	-13.6429
🔝	-13.6429
🔫	-13.6429
🖐	-13.6429
😃	-13.6429
😈	-13.6429
😦	-13.6429
😮	-13.6429
😯	-13.6429
😱	-13.6429
😵	-13.6429
😾	-13.6429
🙀	-13.6429
🙋	-13.6429
🙌	-13.6429
🚀	-13.6429
🚼	-13.6429
🛀	-13.6429
🛌	-13.6429
🛰	-13.6429
🛸	-13.6429
🤛	-13.6429
🤢	-13.6429
🤭	-13.6429
🤮	-13.6429
🤷	-13.6429
🥰	-13.6429
🥳	-13.6429
🦃	-13.6429
🦔	-13.6429
🧘	-13.6429
🧠	-13.6429
☄	-13.643
🎨	-13.643
🥢	-13.643
🤗	-13.9929
🙄	-13.993
🙂	-13.9931
😲	-13.9932
😐	-13.9933
🖕	-13.9934
💫	-13.9935
💧	-13.9936
💁	-13.9937
🎉	-13.9938
肉	-13.9939
牛	-13.994
匂	-13.9941
る	-13.9942
の	-13.9943
が	-13.9944
«	-13.9945
😿	-13.9946
👶	-13.9947
🐮	-13.9948
🇵	-13.9949
“	-13.995
ñ	-13.9951
😋	-13.9952
😇	-13.9953
🍌	-13.9954
🤣	-13.9955
😫	-13.9956
😁	-13.9957
👎	-13.9958
🇪	-13.9959
🇩	-13.996
Í	-13.9961
😣	-13.9962
🍆	-13.9963
🤔	-13.9964
🔥	-13.9965
👉	-13.9966
😑	-13.9967
💪	-13.9968
👍	-13.9969
́	-13.997
☺	-13.9971
Ã	-13.9972
🌊	-13.9973
💔	-13.9974
👏	-13.9975
😉	-13.9976
◡	-13.9977
😒	-13.9978
😟	-13.9979
😭	-13.998
😂	-13.9981
😞	-13.9982
̄	-13.9983
