<blank>
<s>
</s>
▁a
s
▁que
▁de
?
▁não
▁o
▁é
,
▁e
▁para
▁
▁E
▁Não
▁Mas
▁Eu
▁com
▁A
▁me
.
▁um
-
▁do
▁vou
▁eu
▁uma
▁bué
h
▁mais
▁I
▁bem
▁da
▁no
&#039;
▁à
▁Vou
▁se
m
▁já
▁É
▁O
▁em
▁por
o
r
▁Já
▁isso
▁ser
▁fazer
▁ver
▁te
▁na
▁também
▁agora
▁está
▁estou
▁muito
▁mesmo
▁sei
▁tenho
a
▁mas
▁só
/
▁ao
▁Estou
▁ir
▁casa
▁ter
▁dormir
▁as
u
;
▁Se
▁porque
▁minha
▁Sim
▁os
▁depois
️
▁*
▁Está
!
t
me
▁quando
▁dia
▁vai
▁amanhã
▁foi
te
▁Ainda
quot
▁ti
▁❤
▁Porque
▁you
▁meu
▁estar
i
▁estava
▁ainda
▁Então
▁assim
▁fixe
mos
es
▁era
▁nada
▁tua
▁ele
▁tempo
▁lá
▁Ya
▁ou
▁como
▁vez
▁dizer
▁sim
▁Também
▁hoje
▁tens
▁há
▁tu
▁Okay
▁bom
▁até
e
&
▁Só
▁boa
Até
▁gosto
▁ficar
▁Que
▁tem
y
://
▁disse
▁Isso
d
▁então
▁Tenho
_
▁vídeo
▁http
▁Quando
▁Vai
▁melhor
▁quero
▁bocado
▁falar
▁mim
▁ela
▁sempre
ei
▁tinha
▁Depois
▁contigo
ste
▁Ele
▁Como
l
▁Por
▁Para
ou
▁2
▁Agora
▁estás
▁foto
▁coisas
tão
do
▁Mesmo
▁Ok
com
▁estudar
▁&
v
▁Pois
▁são
▁Acho
▁No
▁it
n
=
▁vais
f
▁menos
▁noite
▁jantar
▁banho
▁Foi
▁coisa
▁1
▁isto
)
▁aí
da
▁conversa
▁acho
▁tudo
▁👅
▁teu
www
▁mal
▁so
▁vezes
▁Tens
▁nice
re
▁Tu
▁You
p
c
▁Damn
▁nem
▁Ah
▁chegar
▁Mariana
▁horas
▁aqui
▁tomar
▁for
30
▁sem
▁3
▁outra
▁posso
▁Ou
▁baby
▁Era
▁sou
se
▁It
b
▁Bué
(
▁tentar
▁Ela
▁vi
▁to
▁Gosto
▁Estava
x
▁esta
▁mãe
▁the
▁though
▁nos
▁cena
▁diz
▁logo
▁Amanhã
g
▁dá
▁Boa
▁comprar
▁dar
▁ia
▁quase
▁that
▁Afonso
▁pensar
▁̄
▁comigo
▁(
▁ano
▁comer
▁Gonçalo
▁dos
▁gira
▁De
▁espera
▁Maria
▁pessoas
em
▁eles
▁tarde
▁okay
ing
▁i
▁aula
▁10
▁Vais
▁tipo
▁quiseres
▁Estás
w
▁passar
1
▁mau
▁termin
▁todos
▁Olá
▁Hoje
▁mandar
▁That
ar
▁vamos
ão
▁Na
▁jogo
ll
am
▁sair
▁min
▁hora
▁mata
z
▁cedo
▁almoçar
▁Espero
Nem
:
▁cá
▁saber
▁acabar
▁Esta
▁Dorme
▁fotos
▁sério
▁Bom
▁Bem
▁manhã
▁antes
amp
▁faz
▁Claro
▁teste
▁5
▁daqui
▁be
▁in
▁seria
mente
A
▁dias
▁semana
▁quê
▁podes
▁know
▁estranho
▁onde
2
▁f
▁parte
▁8
▁cama
▁alguma
▁nunca
▁acordar
▁grande
▁Yes
▁bocadinho
0
6
▁ontem
▁outro
va
▁giro
▁este
▁Em
O
▁primeira
▁Wow
▁Oh
▁pelo
▁un
▁consigo
▁segunda
4
▁essa
▁meus
▁P
▁is
▁estão
ia
▁9
▁Muito
▁Not
▁Há
▁True
▁T
▁fui
▁sorry
de
▁aulas
▁Queres
▁deve
7
youtube
8
3
▁♥
▁Um
▁Parece
▁Rip
▁calhar
k
▁queria
▁técnico
▁pronto
watch
▁almoço
▁cima
▁causa
▁cenas
▁queres
▁vir
▁usar
▁pode
▁temos
!!
▁pela
▁ya
▁mesma
as
▁4
▁7
▁S
ndo
▁tive
▁Same
▁São
▁levar
▁primeiro
er
▁Quero
5
▁What
S
▁piada
9
▁parece
U
▁comboio
▁ouvir
▁not
▁go
▁autocarro
▁C
▁tanto
▁Why
▁fine
final
M
▁forma
I
B
▁verdade
▁Acabei
▁sobre
▁20
▁Yeah
▁faço
▁tirar
ed
▁As
▁Pode
ra
▁sad
▁re
▁pouco
▁dois
▁ahahah
▁gostar
▁imenso
▁good
▁Nope
▁t
▁pessoa
D
j
▁num
▁ideia
▁és
▁pais
▁fica
▁Manda
▁cute
▁seja
▁irmão
▁Thank
▁telemóvel
▁esperar
E
▁Tem
▁Sorry
▁começar
▁quarto
▁vão
▁maria
▁Podes
▁Uma
Q
F
▁too
▁sabes
▁Goodnight
▁filme
▁fiz
▁falta
▁feliz
▁will
▁qualquer
▁love
lo
▁pena
▁lhe
to
▁Good
▁Qual
▁lado
▁Os
▁M
R
▁cabeça
▁Tipo
▁conseguir
▁voltar
▁dele
▁pai
▁up
▁18
P
▁correr
▁esse
▁15
▁volta
❤
▁Diz
▁toda
▁Vamo
▁Ao
C
▁sorte
▁F
▁Bye
▁quem
▁mensagem
▁avó
▁B
▁bastante
▁duas
\
▁difícil
H
▁dinheiro
▁😘
▁Isto
)_
▁fosse
▁vejo
▁Sou
ツ
▁guess
▁disso
▁minutos
ta
▁têm
▁engraçado
▁rápido
▁anos
▁mean
▁percebi
▁vontade
▁juntos
▁Nunca
▁carro
▁and
▁ler
os
▁c
▁fim
▁u
▁ficou
▁vida
T
▁out
▁poder
in
▁Com
▁Lisboa
▁digo
▁my
▁tinhas
▁deixar
▁Do
▁don
K
ção
▁right
▁pôr
pt
▁6
▁Grande
▁gente
▁andar
▁metro
▁of
▁sabia
▁pipoca
▁nisso
la
▁Fuck
▁N
q
▁Nice
en
▁preciso
▁Yup
▁Gostava
▁À
ram
▁sentir
▁tbh
▁pois
▁sure
▁meia
▁Mais
▁really
▁amigos
ca
▁d
▁Posso
▁chill
▁teus
▁Sabes
G
▁Don
▁fico
▁demasiado
▁triste
▁la
Y
▁fácil
▁dito
▁Omg
▁comida
▁estiver
▁V
▁Also
▁cabelo
W
▁certo
▁11
▁sono
▁dela
▁Provavelmente
▁lavar
▁rip
▁true
▁Seria
▁perceber
▁Te
▁muita
▁insta
▁Still
▁sentido
▁aquilo
▁morrer
▁meio
▁todas
▁sala
N
J
▁super
▁can
ro
▁Btw
▁talvez
co
▁Vi
▁problema
▁estamos
▁Fico
▁pior
▁arruma
▁certeza
▁dores
▁estive
▁apenas
▁Desculpa
▁Fui
▁percebo
▁cara
...
▁arranjar
▁Ai
▁nas
▁foram
á
or
▁14
▁frente
▁fez
▁b
▁exame
▁p
▁És
▁en
al
▁Sempre
▁algo
▁trabalhar
▁embora
L
▁ligar
▁todo
le
▁acabei
▁Este
▁17
▁trabalho
▁contente
▁final
▁Talvez
▁what
▁querer
▁Da
▁consegui
▁gostas
▁G
▁Okapa
▁Assim
▁omg
▁podia
ma
mo
!!!
ria
▁Quem
▁altura
▁Estive
▁irmã
▁sabe
▁momento
▁Daqu
▁aquela
▁feito
▁Tive
Z
▁apanhar
▁vale
▁Porquê
▁espero
▁nós
▁gostava
▁sido
▁:(
▁haver
▁achas
▁teres
▁importante
▁sucks
▁conta
▁perguntar
▁So
▁Exato
▁próxima
▁Achas
▁Pelo
▁chato
*
▁on
▁😊
quanto
▁16
▁vê
▁ahah
▁normal
▁30
▁manda
▁devia
▁pc
▁net
is
▁Sure
▁Me
▁qual
▁escrever
▁numa
▁disseste
▁devo
▁durante
▁estavas
▁podemos
ly
▁im
ado
▁dentes
go
▁Olha
▁jogar
▁relatório
▁pagar
▁Go
▁:
%3
▁Hmmm
▁quanto
▁Ahahahah
▁boy
▁claro
▁Ontem
▁acaso
▁viagem
▁família
▁querido
▁Ver
▁Dá
▁Fica
▁Vê
▁alguém
V
▁12
▁cor
▁lab
ga
ce
nos
▁😏
▁princípio
▁roupa
▁mandei
▁cheguei
▁saudades
▁mala
▁rapariga
▁má
▁like
▁Des
▁ninguém
▁cool
▁Fogo
▁neste
▁bateria
▁fiquei
▁chamada
▁chorar
▁facto
▁receber
ve
▁pé
▁wait
▁sexta
▁muitas
▁D
▁quer
▁pensei
▁Podia
▁pedir
ri
ne
▁nenhum
▁outras
▁tho
▁pequeno
▁camisola
▁desculpa
▁damn
▁Ahhh
X
▁li
▁responder
▁look
▁Quase
▁levantar
▁then
▁música
na
nna
▁volto
▁pulseira
▁Adoro
▁correu
▁nota
▁vá
▁última
▁👋
▁barba
▁outros
▁ajudar
▁algum
▁mando
lhe
▁ansioso
▁domingo
▁quarta
▁still
▁resto
▁Deve
▁fuck
▁ias
▁W
▁Esse
▁Nada
▁mo
▁Yo
▁acontecer
é
▁último
▁😢
▁estudo
pa
▁dizes
▁deixa
▁vem
▁idea
▁jeito
▁provavelmente
▁Onde
▁sleep
▁olá
▁tiver
▁minhas
▁professor
res
no
▁this
▁gostei
▁fazes
▁olhos
▁sítio
▁pergunta
▁amor
▁devias
▁lembro
▁quinta
▁Cheguei
▁sozinha
▁caro
di
▁viste
▁algumas
▁novo
▁gosta
▁sinto
▁acabou
▁nossa
▁Tinha
▁aconteceu
▁eyp
▁ok
▁Deixa
ada
id
▁Faz
▁dava
▁razão
▁happy
▁cansada
▁festa
▁reunião
▁porta
▁fun
▁umas
▁tuas
▁Senão
▁mandou
▁será
li
▁prenda
▁grupo
▁btw
▁brincar
▁Ahh
▁passe
▁tal
▁abrir
▁teve
▁tenha
▁livro
▁Técnico
▁anexo
▁suposto
▁incrível
▁Love
▁desde
ter
▁your
▁nenhuma
▁caso
▁desta
▁entre
▁Byeee
▁Ahahah
▁Wait
▁havia
▁💛
▁passado
nt
▁Can
it
ch
▁video
▁precisas
que
▁próximo
▁resposta
▁worry
▁natal
▁Faze
penas
▁U
be
ti
▁Devias
▁The
bo
▁atenção
▁How
▁Shit
▁carregar
▁vestir
▁cada
▁chegou
ós
▁chega
▁estavam
▁bye
▁Done
▁nao
▁co
▁relação
▁sábado
▁yeah
▁with
▁funny
▁atendeu
▁Sad
não
▁Quer
at
facebook
▁diferente
▁tivesse
▁af
▁Falta
▁ma
▁deu
▁baixo
▁:&#039;(
▁Logo
▁Essa
nviaste
▁entrar
das
▁beijinhos
st
▁mudar
nte
▁fora
▁exercício
▁visto
▁apetece
▁Pens
▁Corre
▁foste
▁acordei
▁adormecer
▁nosso
▁pelos
▁estado
pi
▁Ohhh
▁Hi
ço
▁Hello
▁André
▁Diogo
▁Gostei
▁buscar
▁mostrar
▁💕
▁dentro
▁13
▁Aqui
▁demorar
▁Sei
▁código
▁dói
▁mensagens
▁porquê
▁Brb
▁várias
▁much
▁Verdade
quer
▁meses
▁19
ir
▁fores
▁eram
▁23
▁bilhete
▁get
▁chego
▁barato
▁preocupes
▁about
▁nome
▁ajuda
▁afinal
▁continuar
▁medo
▁estas
▁x
▁Meh
▁Eia
▁porto
▁one
▁deles
▁passa
▁escolher
▁m
ng
▁luz
▁luck
▁Dói
▁Obrigada
▁ginásio
▁shit
▁why
▁pls
▁experimentar
▁semestre
▁amiga
▁pro
▁H
▁vistos
▁pernas
▁We
▁seca
▁igual
▁amigo
▁need
▁Depende
▁😞
▁tanta
▁barriga
▁Perde
▁Turn
▁custa
▁seguir
ck
▁there
▁deitar
▁-
▁nova
▁demora
▁thank
▁calças
▁Really
▁sense
▁afonso
▁falamos
▁tratar
▁Aquele
▁Hey
▁lisboa
▁envio
▁Ia
▁was
15
▁Opa
▁ires
▁testes
▁mão
▁ponto
▁água
▁Back
▁proud
▁Fiquei
▁fizeste
▁Antes
▁disto
ação
▁terça
%2
▁mandaste
▁Re
▁real
▁n
20
íamos
???
▁Podemo
▁bonita
▁maior
▁0
▁horrível
▁treino
▁Pronto
▁período
▁weird
▁But
▁Estão
▁got
▁essas
▁exames
▁contar
▁erro
▁Sem
▁Yay
▁pe
mail
ka
í
an
▁did
▁Hmm
▁horário
▁segundo
aaa
▁now
▁lindo
!!!!
▁fazia
▁Bernardo
▁mês
▁Lmao
▁máximo
▁Cute
▁perto
▁adoro
▁💖
▁gozar
po
▁começa
▁are
▁consegues
▁we
▁son
ut
▁L
▁g
▁si
▁Ahhhh
▁carta
vamos
▁feel
▁partir
▁yes
▁merda
▁função
▁começou
▁Be
▁encontrar
▁Dia
▁cozinhar
▁estares
▁conhecer
ito
▁melhores
1)
io
▁22
▁miss
▁cadeira
▁Jk
▁janela
▁praxe
▁minimeu
▁frio
▁arroz
▁fome
▁aero
▁Quanto
▁cagar
▁beber
▁Queria
inha
+
▁ra
sse
▁ouvi
▁man
▁dizeres
ções
▁episódio
▁houve
▁recebi
▁xana
▁nervosa
▁back
▁Hmmmm
▁dormi
▁Mostra
▁And
▁melhorar
ci
▁decidi
▁acontece
▁Pedro
▁inglês
▁lmao
▁Melhor
▁just
▁Okok
▁cheio
▁importo
lt
▁reparei
▁💜
▁Sai
▁ficava
tu
▁vídeos
▁boca
▁See
▁acredito
▁direito
▁física
▁Luís
▁estranha
▁início
▁Disse
emos
▁deste
ge
▁problemas
sta
▁aquele
ido
▁Sinto
▁estilo
▁literalmente
▁suficiente
▁Goals
▁again
▁100%
▁explicar
▁bad
▁aprender
▁tiveres
ámos
ee
▁Aí
▁vemos
▁avisa
▁fale
nd
▁mostra
▁mostro
▁all
sses
▁diferença
▁papel
▁química
▁treta
▁costas
▁ro
▁Wut
▁compras
▁soon
▁Ohh
▁curso
▁rios
▁Porto
▁cortar
99
pe
▁21
▁makes
ó
ba
nta
•
▁localização
▁única
▁😟
▁preferires
▁integral
▁sessão
▁corpo
▁maneira
▁at
▁see
▁To
▁Ficou
▁dreams
▁Tudo
▁Estavas
▁achar
▁sol
▁email
lém
ões
▁podem
▁if
▁Nao
▁termos
eee
▁avião
▁bonito
▁Adiós
▁aguento
▁gajo
▁babe
▁máquina
▁nesta
▁Fixe
▁Bora
▁pewdiepie
▁Imagino
▁social
▁espaço
▁acordado
▁vestido
▁simplesmente
▁importava
▁atrás
▁olhar
▁imensa
▁estiveres
40
▁z
▁achei
▁ta
▁conseguia
▁massa
vo
fi
us
▁funcionar
▁ha
▁estivesses
▁sangue
▁😂
▁culpa
▁projeto
▁Sweet
▁cheia
▁kinda
▁complicado
▁pizza
▁homem
▁Compra
▁questão
eu
▁estivesse
ist
ao
/2
gu
quilo
▁Li
ema
posto
ish
▁Alright
▁conheço
▁esforço
▁Basicamente
▁intenso
▁esqueças
▁conduzir
▁vocês
▁veio
▁Idk
▁Milão
▁câmara
▁tired
▁sete
▁possa
aaaa
▁passou
aste
▁bilhetes
▁voo
▁dessa
▁Ne
▁desse
el
▁ido
▁tinham
▁boas
▁In
▁condução
▁escola
▁excited
▁laboratório
▁lembrei
▁chá
▁bons
▁Fiz
▁sozinho
▁Imagina
▁diria
▁Right
▁encontro
▁falo
▁normalmente
▁partilhar
ting
▁descansar
▁vlog
ita
▁k
▁+
▁boi
▁Yesss
▁comi
▁su
ooo
videos
▁imensas
▁passo
▁lugar
▁péssimo
▁cálculo
▁enough
▁Wtf
▁mochila
▁Hope
▁ponho
▁Funny
▁Comprei
▁achava
▁especial
▁night
▁resolver
00
▁saio
▁pontos
▁aproveitar
▁date
▁concerto
▁make
▁Vá
▁Sup
▁gastar
▁tenhas
▁acaba
ê
mento
mas
▁doer
▁vês
▁24
▁teria
nds
=1
▁Baby
▁cozinha
▁experiência
▁mundo
▁João
▁rabo
▁longe
▁but
▁Wil
▁:)
▁importa
▁Ma
bi
▁fala
▁funciona
gt
▁app
12
▁tido
▁liga
un
▁decidir
▁Probably
▁fancy
▁óculos
&#123;
▁caminho
▁editar
▁Será
▁Harry
▁calor
▁tirei
▁limpa
2)
▁estágio
▁Foste
▁força
▁Ohhhh
▁chama
▁thanks
▁vens
▁subir
▁nessa
▁diferentes
▁corre
mi
▁Devia
ça
ência
▁come
▁perguntas
▁falarmos
▁y
im
▁sa
▁simples
▁querias
dos
ínhamos
▁central
▁biológica
▁aceito
▁Kinda
▁treinar
▁parecia
▁obrigada
▁Pena
▁bitch
▁preparar
▁linha
▁preferida
▁star
▁comprei
▁aced
▁Alguma
▁Beijinhos
▁ex
▁R
▁mimos
▁alguns
▁engraçada
▁fixes
▁plano
▁série
▁sonho
▁ri
▁=
▁lembrar
▁pus
▁stress
▁time
▁Fo
▁sai
▁uso
▁trouxe
▁favor
▁tento
▁gonçalo
▁Adivinha
▁Concordo
▁possibilidade
▁inteiro
▁sitio
▁vários
▁wtf
▁hotel
▁exemplo
▁cartão
▁frango
▁linda
▁história
▁geral
▁namorada
il
▁life
▁falado
▁fomo
▁Have
▁lista
▁levo
ment
tar
yy
▁dizia
ie
▁descobrir
▁aparece
▁notas
11
▁bater
▁pa
ver
▁estejas
ina
▁dera
▁Niceee
▁have
idade
▁try
▁Hopefully
▁pretty
▁prática
▁nariz
▁odeio
▁Clássico
▁trazer
▁Acordei
▁gelado
▁querida
▁atrasado
▁want
▁Lá
▁precisar
frac
▁outfit
▁repetir
▁Thi
▁le
▁cp
▁Nota
▁Aww
▁ficas
▁corra
▁usa
ns
10
▁mulher
▁parar
▁Ew
▁ca
iiii
▁viu
ad
▁par
▁fal
ive
aaaaa
-2
youtu
▁Indeed
▁perfeito
▁Aceito
▁brb
▁Daaaamn
▁nisto
▁penso
▁completamente
▁tomei
▁could
▁won
▁praia
▁capaz
▁messenger
▁comecei
▁massagens
eeee
▁tomate
▁mc
▁hot
▁mil
▁off
▁Sa
▁mãos
▁ahaha
▁feira
▁Mal
on
▁filmes
▁perder
▁faltar
▁exercícios
▁Conta
▁Fal
nda
▁chegares
▁Come
▁semanas
▁ja
▁r
▁pensa
ight
dor
▁Ha
du
▁programa
▁olha
▁ligo
▁help
▁work
▁aeroporto
▁glad
▁matéria
▁médico
▁orgânica
▁português
▁situação
▁vomitar
▁aspeto
▁Martim
▁vermelho
▁calculo
▁Joana
▁also
▁hope
▁mexer
▁preço
▁Easy
▁Make
▁preto
▁Pensava
▁Well
▁chuva
▁trás
▁Yep
▁ouvido
▁leva
▁tra
▁vim
▁confusa
▁compro
▁tiveste
▁hate
▁Põe
45
▁professora
▁namorado
tor
▁esses
▁passage
▁Sonh
▁w
▁done
▁continua
▁pi
▁dizem
=2
▁Po
▁quis
▁acordo
°
▁Exatamente
▁pequena
▁switch
▁😉
▁Portugal
▁férias
▁principio
▁wow
▁hospital
▁exatamente
▁zona
▁Smh
▁\(
▁nesse
▁rever
▁mpt
▁Encontramo
▁Devo
▁concentrar
▁entrada
▁entregar
▁playlist
▁Let
▁Ahahahahah
der
▁same
▁primo
▁way
▁goals
est
▁trocar
▁po
▁disseram
▁Gostas
▁Muitos
▁põe
▁Pensa
▁god
▁Chega
▁Con
▁bo
▁teor
▁tivesses
cer
▁chegue
▁fiques
oo
▁esteja
▁best
▁dente
▁He
▁alho
50
um
▁meias
▁muda
▁qu
ico
▁verão
▁vo
▁Lucky
▁Ja
▁estarei
▁meme
▁gr
fe
▁Literalmente
▁awkward
▁churrasco
▁obviamente
▁ridículo
▁◡•)/
▁rude
▁dentista
▁possível
▁objetivo
▁vagina
▁rua
▁chão
▁idk
▁matemática
▁Bastante
▁Obrigado
▁prefiro
▁Preferia
▁emoji
▁escolha
▁Gute
▁lol
▁Má
▁acabado
▁quiser
for
ulisboa
▁campo
▁confirmar
0€
▁Ahhhhh
nce
▁doente
▁Got
cha
▁viver
▁baixar
▁mess
bra
▁digas
?&
-1
▁j
ava
▁Mu
qu
▁dado
▁parecer
anda
ante
qui
ig
▁compra
▁más
▁fosses
▁Vem
ouve
▁Qu
gar
▁Nah
▁rapaz
▁percebes
▁esqueci
▁Estar
refiro
▁Basta
▁Yellow
▁cinema
▁vermelha
▁Esqueci
▁azul
▁restaurante
▁sentada
▁equipa
▁basicamente
▁opções
▁discussão
▁Filipa
▁irritante
▁imagem
▁fila
▁sexy
▁Cya
▁passei
▁traje
▁podias
▁rede
▁saiu
▁mi
▁precisa
▁fazem
▁aguentar
▁hi
▁check
▁chegas
▁sejas
▁Vemo
▁mind
▁saia
▁grave
▁cuddle
▁oportunidade
▁J
▁noção
ias
▁somos
▁lo
▁farta
ug
one
las
▁mar
▁25
€
▁turn
ário
▁problem
▁ahahahah
share
▁Maybe
▁Obviamente
▁Preciso
▁Santiago
▁actually
▁chocolate
▁contrário
▁garganta
▁gigante
▁loiça
▁número
▁preferes
▁péssima
▁razões
▁tamanho
▁👏
▁pedro
▁Entãaaao
▁daquela
▁Nvm
▁imprimir
▁revisão
▁chover
▁Just
▁mood
▁wish
▁pessoalmente
▁Começa
▁perguntei
▁sentes
▁voz
▁nacht
▁continente
▁perguntou
▁girl
▁Meu
▁deixou
▁sexo
▁Ahahaha
▁late
▁pensava
ende
▁vista
▁ugh
▁Ter
los
▁cores
per
almente
car
▁Aka
▁mesa
▁Vej
▁tia
▁borbulha
▁dorme
ny
ados
▁For
▁ai
▁músicas
▁chamar
▁descobri
aa
lisboa
▁Vês
eiro
▁du
▁bue
▁Tenta
▁leve
▁contra
▁Precisa
shirt
les
▁Avisa
▁Coitado
▁barulho
▁género
▁praticamente
▁bebé
▁burra
▁aviso
▁hipótese
▁noutro
▁Aquela
▁aceite
▁Tbh
▁solução
▁opção
▁Chego
▁interessante
▁pronta
▁estúpido
▁lembrava
▁cansado
▁alto
ica
et
ent
▁Foram
▁coração
▁✨
▁v
▁Pergunta
▁estação
▁Ansiosa
▁site
▁chegaste
▁veres
▁aparecer
▁tecnico
▁gostou
▁Co
1=
▁sequer
▁40
▁palavras
▁Gg
▁Toma
▁existe
▁l
ic
▁more
são
ixa
▁pre
▁beijo
▁dúvida
ando
man
▁irmos
▁sendo
▁sais
▁via
▁En
how
▁Uhh
ã
▁Fala
▁Hii
up
▁significa
▁wanna
type
▁eheh
▁Portanto
▁Sleep
▁atraente
▁descrição
▁gráfico
▁grátis
▁online
▁relógio
▁simpático
▁ordem
▁Odeio
▁benuron
▁loja
▁should
▁escadas
▁print
▁review
▁rosa
▁inchado
▁sms
▁farto
▁Fun
onald
king
▁fase
▁saco
▁molho
▁sinal
▁puderes
▁fazemos
▁portugal
▁depilação
lho
▁calcular
▁imaginar
▁chata
▁tocar
▁fundo
▁batatas
▁guarda
▁buéeeee
▁airbnb
▁Somos
25
tro
ct
▁La
▁idade
▁sua
▁som
▁Ven
▁marcar
old
che
rt
ine
amente
▁Comi
▁colega
▁thing
▁miúdo
ref
▁ganhar
▁acha
ast
tion
▁saí
▁est
▁memes
▁Get
▁dados
oooo
▁100
▁sabem
▁olho
check
▁delas
zar
yyy
▁queixar
▁think
ento
▁Anyhow
▁Daaamn
▁média
▁tomorrow
▁zelda
▁Mandei
▁desligar
▁penses
▁sessões
▁carregador
▁Quais
▁cringe
room
▁Ikr
▁cuidado
▁explicação
▁gala
▁facilmente
▁con
▁bora
▁Yey
▁planear
▁harry
able
▁rico
▁Yolo
▁Espera
fa
▁pão
▁mostre
▁encontrei
▁ready
▁desistir
▁down
out
▁tiro
19
▁first
▁pipi
▁Num
ion
▁esp
▁comentários
▁Cal
dy
ni
▁partes
tal
▁terem
▁q
guei
ras
▁top
nho
▁sonhos
Too
nto
▁yo
▁Ahahahha
▁dessas
ana
tas
▁home
▁pago
▁prova
open
▁Weird
ಥ
▁Combinado
▁Consegues
▁Finalmente
▁Itália
▁anterior
▁lanchar
▁levantei
▁pijama
▁sapatos
▁secundário
▁velha
▁biomédica
▁Enjoy
▁frase
▁parecido
▁crl
▁unhas
▁banana
▁yet
▁Saí
▁acontecido
▁etc
▁Normalmente
▁preferido
▁touch
▁abre
▁Update
▁pila
▁reação
▁Yaaay
02
▁italiano
▁posição
▁fato
▁(?)
▁agradecer
▁well
▁capa
▁dê
▁here
▁percebeste
▁chegado
▁mini
▁dou
▁Todos
▁falou
^2
18
▁K
til
▁Opah
ake
▁ahahha
▁corta
▁gostam
▁vires
▁ga
▁tira
▁ficam
▁200
▁dúvidas
lot
▁fa
▁azar
▁braço
▁livre
▁exercicio
68
▁fotografia
▁Meno
52
ice
ak
▁he
▁séries
▁tenta
▁baixa
▁likes
▁Byeeee
▁estaria
▁labs
esteve
▁procura
spotify
tecnico
first
https
▁per
kg
35
▁Yaaaa
▁fact
▁Consegui
▁conto
▁estuda
▁á
’
▁Química
▁brincadeira
▁cacifo
▁connosco
▁derivada
▁dificuldade
▁direção
▁flexões
▁futuro
▁própria
▁sweat
▁twist
▁ótimo
▁efeito
▁great
feature
▁Adeus
▁Naaaah
▁nudes
▁Intenso
▁Look
▁segurança
▁would
▁empty
▁bolsa
▁pussy
▁nível
▁feita
▁calções
▁carne
▁coragem
▁sangrar
▁fair
▁face
▁compreendo
▁Liga
▁manter
▁arco
▁Bueda
▁vieres
▁energia
▁Hot
▁faria
▁feeling
▁Pus
▁concordo
▁alameda
▁take
▁precisares
▁pôs
amos
▁marca
▁mandado
▁fin
▁how
▁doing
▁Mem
vas
ity
▁voltas
ah
cul
▁exercicios
▁prendas
▁estes
▁Anda
▁tendo
taque
cas
▁fique
▁verde
▁forte
▁musica
▁gato
▁precisava
▁faça
▁Toda
▁Tira
por
▁piadas
▁Acorda
▁Le
%
ther
▁senti
este
by
log
▁arranja
72
▁50
▁27
turn
▁adora
29
▁cheira
▁aqueles
▁atual
▁Su
▁update
▁Eheheh
▁Finally
▁Keep
▁Recebi
▁Segunda
▁aniversário
▁bernardo
▁cascais
▁confortável
▁ficheiro
▁iguais
▁serenata
▁situações
▁adormeci
▁beijar
▁breve
▁durmo
▁oriente
▁branco
▁pressão
▁sofá
▁Pretty
▁free
▁espelho
google
▁smile
▁habituado
▁morning
▁impossível
▁chateada
▁Fizeste
▁blá
▁supostamente
▁língua
▁parabéns
▁prof
▁toalha
▁Lol
▁voltei
▁course
▁potter
▁resultado
▁🌟
▁despachar
▁pensado
▁Dormir
▁passear
▁senhora
▁torre
▁acordou
▁namorar
▁entro
▁corrigir
▁fu
▁preferia
▁reagir
13
▁corte
▁😍
▁adorar
▁nope
ke
▁reparar
gue
▁novas
▁quente
▁post
ac
▁ficaria
ds
▁contas
▁ali
▁anda
▁Ca
▁soube
ino
▁nu
▁faças
▁fotografias
▁vimos
44
▁devem
con
mb
▁cri
▁consegue
lguém
▁toma
▁velho
▁filho
▁28
▁conheci
0&
▁bi
ran
▁some
quele
▁bro
▁Chegas
▁descansa
eira
▁vlogs
pp
ii
leave
inho
▁mandas
▁di
▁esquece
▁most
05
▁confirma
▁pod
▁deixo
ven
▁fi
▁puder
▁trans
▁QUE
▁Colombo
▁Confirmo
▁McD
▁Woooow
▁camisa
▁consulta
▁erasmus
▁lanche
▁Certo
▁extra
▁veja
▁seguro
▁pobre
▁flag
▁natural
▁Gira
▁portuguesa
▁resolução
▁surpresa
▁Outra
▁dificil
▁Martins
▁Continua
▁wars
▁ultima
▁bunda
▁seguinte
▁confusão
▁referência
▁bond
▁principal
▁step
▁companhia
▁computador
▁Faço
ável
▁enviar
▁ocupado
▁acordada
▁Dormiste
▁instalar
▁fight
▁crescer
▁valores
▁clara
▁gay
▁alta
▁cair
▁sopa
urante
▁cão
▁bu
ever
▁trata
▁eventos
▁going
▁Wa
liza
▁Byee
▁considerar
▁31
▁Un
▁apareceu
▁Hmmmmmm
▁procurar
▁Ri
▁usas
high
▁terá
▁Faltam
▁gostaste
▁win
▁reservar
▁promise
▁avisar
mentos
RE
▁an
tura
▁casaco
▁elogio
uess
▁entras
▁gan
▁borbulhas
32
▁dead
▁Bon
▁Are
▁limite
▁neve
▁percebe
▁deves
▁elas
ura
hhhhhh
=3
34
É
/4
▁gasta
▁larga
ú
▁depende
▁perdi
▁acabo
ful
of
▁Aaaahhh
▁friend
❣
▁Descansa
▁Sebastião
▁abaixo
▁ansiosa
▁cebola
▁continuo
▁cuecas
▁fórmula
▁organica
▁referir
▁torradas
▁álcool
▁único
▁quantas
▁pausa
▁sistema
▁Stop
▁scary
▁creme
▁totó
▁hard
▁completo
▁temporada
▁aberta
▁strong
▁universidade
▁curto
▁quais
▁Lembrei
▁Comigo
▁atenta
▁confiança
▁matlab
▁Óbvio
▁😔
▁🙏
▁combinado
▁despertador
▁fizeram
▁norte
▁stressar
▁caiu
▁pele
▁criar
▁link
▁us
▁respondeu
▁tiraste
▁20€
▁momentos
70
▁esforçar
▁Querias
▁andado
êm
▁comprimento
▁Mo
▁lugares
▁mariana
▁Acredita
▁comprou
ry
▁news
▁fechar
▁programar
▁erros
▁sal
▁lea
▁compensar
prestar
▁Ahahahaha
▁ficasse
▁Deu
▁preocupar
▁conseguiu
▁bed
37
press
65
▁saberes
▁irmãos
0%
▁ahahaha
▁inter
▁suja
xe
para
▁Lit
▁escolhe
▁Yaaa
▁miúdos
▁bat
▁Estuda
▁bues
▁deus
ick
▁pega
▁quisesse
▁letra
ais
▁certa
▁branca
▁fã
▁perna
▁Lembras
▁pareces
▁Ahah
ista
▁Entre
▁acham
55
▁iria
pesar
ಠ
airbnb
nha
feira
▁Nos
▁#
new
▁let
▁irrita
▁Yaaaay
▁imagina
▁senhor
22
▁Acontece
▁Passa
▁Normal
upostamente
html
Á
▁Agradeço
▁Carolina
▁Inocêncio
▁Ready
▁almôndegas
▁ansiedade
▁assunto
▁blowjob
▁civil
▁entupido
▁fluxo
▁fodida
▁francês
▁mínimo
▁perfeita
▁provável
▁quimica
▁David
▁greve
▁equação
▁sensação
▁Imenso
▁normais
▁porcaria
▁venho
▁avô
▁gaja
▁while
▁bbm
▁tampa
▁inteligente
▁partido
▁peqb
▁caixa
▁Terça
▁Ugh
▁black
▁pareço
▁portanto
▁forward
▁dick
▁Never
▁soft
▁abraçar
▁cidade
▁Acabou
▁stc
▁Pela
▁Lindo
▁sotaque
▁publica
▁respirar
▁cantar
▁Lel
▁teoria
▁pá
▁looking
▁drive
▁amazing
▁contou
▁usei
▁agosto
▁falaste
▁yay
▁TU
▁encontramo
▁guardar
▁maiores
=0
▁big
▁querem
spa
▁bia
▁sonhar
▁iam
▁duvidas
1,
zi
▁Tf
enta
▁meh
▁lite
▁use
▁Especi
ty
▁ficaste
2018
▁ofc
06
▁far
▁abertos
ávamos
▁aproveita
▁nomes
ente
▁Thanks
▁incomoda
▁gostes
gr
sso
▁Par
endo
▁ganha
▁íamos
▁casos
▁Pa
▁Tir
64
98
__
▁dor
▁tornar
▁diaaa
▁sítios
je
fer
▁bit
▁st
▁vs
via
▁sabias
sim
ving
▁videos
▁cham
▁diga
bem
▁melhoras
%5
▁apagar
96
43
;)
▁goste
▁abri
▁quantos
78
tos
▁Tal
fu
▁subi
/6
😍
▁compensa
/1
valia
▁control
gh
▁Demor
▁Miss
▁agradece
▁segui
▁29
orry
▁levanta
▁direta
▁fisica
▁break
abilidade
▁Claramente
▁Contigo
▁Prometo
▁Shame
▁assustador
▁atividade
▁direita
▁enjoada
▁explico
▁pescoço
▁piscina
▁potencial
▁repente
▁Chama
▁overall
▁tambem
▁costuma
▁keep
▁contacto
▁esquerdo
▁formula
▁naquela
bnb
▁regra
▁sonhei
▁Xana
▁metade
▁something
▁viagens
▁kiss
▁cheiro
▁acertar
▁stalker
▁Miguel
▁Okaaaay
▁chateado
▁please
▁triggered
▁expressão
▁espere
▁recente
▁Omw
▁mds
▁mamas
▁copo
▁chinesa
▁bicicleta
▁yourself
▁fizemos
▁puseste
▁estúpida
▁apresentação
▁only
▁white
▁fingir
▁gostavas
▁gelo
▁vinha
▁alarme
▁calma
▁them
▁Foto
▁Fe
▁play
▁abril
;__
▁Yess
▁identificar
▁aplicação
▁chegava
▁torna
▁ligada
▁esquecer
photos
▁ligou
▁sofrer
▁casamento
▁Aproveita
▁game
▁Vale
▁bonitas
▁mia
▁vermos
▁estivemos
▁talk
48
▁Opaaaa
▁Bu
▁Repara
▁daí
▁lhes
▁Bo
▁acordaste
▁bate
gem
▁didn
▁responde
▁comido
▁tios
▁daqueles
30?
▁care
▁brancas
▁Cor
▁mandares
▁ideias
74
▁Di
nic
▁sen
▁grandes
itar
▁Of
/10
tado
▁dormes
▁estará
cos
ugh
▁parecem
95
▁giras
▁Leva
lbum
▁valor
rom
my
red
mina
sss
▁ficha
▁Man
uc
org
▁fechado
▁comentário
▁dream
▁cos
▁team
net
rry
alha
▁daquele
▁Sabe
▁repara
mor
▁Ayy
▁dedos
▁respondi
▁has
inhas
▁vesti
ze
▁envi
De
▁encomenda
▁sound
▁youuu
▁Prefer
▁Enganei
▁Benfica
▁Esquece
▁Infelizmente
▁Primeiro
▁calendário
▁direction
▁escolhi
▁específico
▁feriado
▁janeiro
▁power
▁pânico
▁study
▁velocidade
▁duplo
▁Eheh
▁Help
▁indeed
▁myself
▁Comecei
▁resoluções
▁direto
▁Shut
▁Babe
▁Both
track
▁enunciado
▁comentar
▁spam
▁comprido
▁errar
▁antiga
▁habituada
▁pulso
▁better
▁Cool
▁Coolio
▁sabor
▁divertido
▁padrinho
▁preparada
▁Maaaas
▁tentei
natomia
▁atrasada
▁explica
▁ponte
▁próprio
▁peito
▁explicações
▁entrecampos
▁cancelar
▁chatear
▁oral
▁organizar
▁Sexta
:20
▁mude
▁descer
▁sorrir
▁irritada
▁reparado
▁gotta
▁despedir
▁deixei
▁morreu
▁download
▁world
▁bolo
▁Fez
▁say
▁começo
▁call
▁Falamos
▁self
▁acreditar
ios
▁Uhhh
▁parou
▁apresentar
▁Mil
▁desconto
▁avisado
▁Gostaste
▁lucky
▁Dava
▁jo
▁lava
▁Escolhe
▁comia
▁day
▁Tentar
▁segundos
▁professores
▁transportes
▁Hmmmmm
60
▁mad
▁him
▁rica
▁acomp
▁dissesse
▁cons
sign
▁26
▁páginas
uuuu
▁lot
▁marcado
time
▁mu
ações
▁fe
OU
TO
▁usares
vou
▁comemos
▁Aaaaah
▁ob
min
▁ouve
▁opa
▁rir
ites
▁fãs
▁certas
rar
ssemos
low
▁pareceu
▁pal
▁destas
▁over
▁youuuu
ap
▁ME
▁tap
▁beijos
ally
▁defini
▁thought
agem
▁oportunidades
▁aw
▁pic
ob
▁EST
ás
▁exp
▁lit
▁car
▁últimas
▁tell
▁planos
▁preta
enter
38
▁Ficas
^
▁raparigas
23
▁paga
▁Okayyy
92
💖
07
▁Ra
▁Pe
▁cha
▁by
tica
starei
~
▁tru
point
fazer
porque
hhhhh
▁awake
▁Dis
hich
▁Ansios
62
....
umb
.......
▁vemo
and
ww
▁pergunto
▁interessa
▁pede
▁eheheh
▁despach
▁toque
▁facil
▁atraso
inguém
▁Diverte
▁Prepara
▁séria
▁Ajuda
▁Anurag
▁Arroz
▁Coitada
▁Descobri
▁Gulbenkian
▁NÃO
▁Patrícia
▁Please
▁Sérgio
▁aborrecido
▁acompanhar
▁anestesia
▁aparelho
▁apontamentos
▁bochecha
▁chorei
▁curiosidade
▁demasiada
▁drunk
▁energy
▁escuro
▁exagero
▁fodido
▁grávida
▁impressão
▁incríveis
▁pequenina
▁pílula
▁saudável
▁supermercado
▁televisão
▁xixi
▁óbvio
▁Potter
▁chinês
▁maybe
▁nojenta
▁Almost
▁exato
▁Coisa
▁emotional
▁sebenta
▁stop
▁count
▁fogo
▁Agree
▁punha
▁Buonanotte
▁reler
▁Step
▁gross
▁noutra
▁Ciao
▁desenho
▁Pussy
cabámos
▁convém
▁peixe
▁centro
▁Espere
▁Ouvi
▁light
▁mande
▁desejo
▁Passo
▁lento
▁inscrever
▁Pls
▁cabo
▁badminton
▁caralho
▁realidade
▁anal
▁Começo
ocês
????
▁ligação
▁contei
▁adse
▁after
▁jk
▁visitar
▁positivo
▁pintar
▁atrasar
▁caloiros
▁sapatilhas
▁pedido
▁preocupado
▁adicionar
▁bruno
▁aquecer
▁significado
▁pediu
▁controlar
▁💓
▁Cá
▁acabaste
ossil
▁almoças
▁tiny
▁tirado
▁pedem
▁Pro
▁dormiste
▁Misso
▁tirou
▁tomo
ip
torrent
▁instagram
▁conhecia
▁chaves
▁story
▁aceitar
▁ambos
sk
▁later
▁media
▁conheces
▁hey
▁dei
▁alterar
▁log
▁Muitas
▁bela
yp
▁entrei
▁today
▁fix
poupar
▁mentira
▁lábios
▁crianças
cima
▁away
▁Entra
▁acordas
▁consigas
▁data
▁other
ood
▁demore
recia
▁cal
EN
▁durar
▁Hellooo
▁they
▁torn
▁aguentava
dia
▁hmmm
▁DE
09
ooooo
bu
▁pedi
▁posto
▁toca
▁pensares
▁Cust
dores
▁dis
▁musicas
ntro
ER
▁doce
▁Volta
bar
▁lembra
▁Fod
01
▁Niceeee
nais
▁things
/7
ace
▁cuddles
▁passas
ant
▁Yaaaaa
zes
wn
▁vás
▁Ye
▁comboios
▁Seem
▁apanha
men
▁question
▁conv
lá
▁reserva
tic
▁build
▁Dig
▁bebida
app
▁junto
▁Al
▁Deix
▁Ju
esta
▁aguenta
ause
▁new
▁masturba
ries
▁said
▁partilha
42
já
story
ber
var
lista
▁bebi
▁morri
▁varia
▁acredita
Não
▁caga
▁arranjo
▁niceee
▁secar
elefon
▁Nooo
▁safe
▁Percebe
▁Quinta
▁Física
▁Voltei
▁Where
▁almofada
▁apontar
▁comprimido
▁debaixo
▁distância
▁imagino
▁impressionante
▁kidding
▁memória
▁miúda
▁opinião
▁overthink
▁pesquisar
▁polícia
▁probably
▁propósito
▁rotina
▁spoil
▁streak
▁upload
▁animação
▁pressure
▁bigode
▁nojento
▁scared
▁Cutie
▁Hugo
▁Proud
▁Sobre
▁multa
▁partiu
▁yey
▁Tanto
▁random
▁conscious
▁equivalente
▁abraço
▁documento
▁amanha
▁prédio
▁Oops
▁stokes
▁Alrighttt
▁mirror
▁presente
▁Schroiff
▁engana
▁lidar
▁preferência
▁Parecia
▁escrito
▁intenção
▁who
lieve
▁baile
▁receio
▁teóricas
▁Daaaaamn
▁She
▁haja
▁tease
▁ahhh
▁phi
▁obrigado
▁Tirso
▁santo
▁prima
▁viesse
▁sentar
▁buço
▁votar
▁joke
▁Tentei
▁Juro
▁Bitch
▁menorca
▁turma
▁making
▁barco
▁happening
▁bien
▁bêbado
▁hambúrguer
▁parecida
▁necessidade
▁kit
▁custou
onsigo
▁menor
▁wink
▁liguei
▁combinamos
▁Chu
▁programação
▁Sadly
▁continue
▁preservativos
▁perdido
▁sabado
▁importantes
▁main
▁participar
▁2015
▁confi
▁combinar
▁dividir
▁original
▁offline
▁💞
▁Okkkk
▁massagem
▁total
▁Ahahahahaha
▁piso
▁sadly
▁eletro
=0&
▁sul
▁andava
▁entrou
▁MC
▁Jo
▁Ofc
▁maca
▁cadeiras
▁those
▁trabalha
▁experimentei
▁Almoça
▁^
▁peso
cc
▁mandava
▁chegamos
qb
▁Bebe
▁compraste
▁vindo
▁distrair
▁candidatar
▁percebido
▁acabaram
▁leave
▁mac
▁piores
rás
▁relativa
▁secreta
▁folhas
▁preste
hc
▁Now
▁cala
▁fan
▁voltares
zy
morei
the
jc
▁bife
▁Usa
AS
▁chat
ure
▁mel
57
▁giros
▁precisavas
ind
▁conquista
50€
gio
▁andas
▁cap
DE
▁Estudar
▁entra
▁aproveit
uch
ness
▁novos
94
▁levas
▁mem
inhos
▁acorda
eio
chei
HE
▁fizere
▁namorados
#
▁chate
▁grav
ue
▁ho
▁olhei
ja
asse
=6
mp
uuu
▁seu
▁sub
OR
▁fizesse
▁venha
▁aberto
▁palavra
▁ur
▁pagas
ec
▁Repar
corrido
▁part
ger
7€
▁sup
ilha
instagram
▁sonha
entes
personal
ix
gb
▁Acredit
▁presta
estou
▁adormece
▁Dormi
hahahahah
quei
)=
â
▁long
ches
:50
✊
▁inicial
▁she
▁next
inicia
$
▁agradeci
▁Bruno
▁Demasiado
▁Percebo
▁Pessoalmente
▁Quarta
▁Robin
▁YouTube
▁aborrecida
▁apareça
▁biblioteca
▁complicada
▁creepy
▁crítico
▁difíceis
▁fevereiro
▁gameboy
▁human
▁instrutor
▁juntar
▁leggings
▁nintendo
▁núcleo
▁portátil
▁preguiçosa
▁rapidamente
▁responda
▁retribuir
▁sagres
▁sugestão
▁tardar
▁trânsito
▁ultimo
▁ângulo
▁😞😞
▁😭😭
☹
🙁
▁azeite
▁curiosa
▁jantei
▁simpson
▁tabela
[
▁Principal
▁burro
▁consola
▁errada
▁green
▁pomada
▁rapido
▁Badumtz
▁Responde
▁cutie
▁escrevi
▁esquerda
▁ikea
▁inteira
▁Siiiim
▁banco
▁engano
▁enorme
▁andré
▁ausente
▁Inês
▁largo
▁apanho
▁indiano
▁maquilhagem
▁almoçamos
▁personagem
▁close
▁conjunto
▁nvm
▁YOU
▁orgas
▁macacão
▁manteiga
▁agree
▁delegados
▁guy
▁QA
▁beans
php
▁molhada
▁condiç
▁rapar
▁demonstração
▁gorda
product
▁ponha
▁shave
▁Entao
▁laser
▁alone
▁informar
▁fit
▁queiras
▁Roma
▁pudesse
▁tinder
▁sexual
▁estupida
▁ahahahha
▁Perdi
▁kyl
▁Lê
▁relembrar
▁postal
▁beira
▁apanhei
▁sinta
▁morena
▁Cascais
▁estacionamento
▁Pede
▁qualidade
▁especificamente
▁joão
fenix
▁peça
▁nacional
▁minima
▁shame
54
▁5€
▁correio
poca
▁full
▁modelo
schroiff
▁recebeu
▁apetecia
▁alemão
▁recebeste
▁esquecido
▁comprado
▁pesada
▁cortei
▁episódios
▁saímos
ciclo
YP
▁puta
▁💙
▁waiting
▁decidido
▁fria
▁encomendar
▁suc
▁ajudava
▁passada
▁ily
▁stresses
ense
▁Massa
▁basta
▁cola
▁Decidi
ijo
▁gostado
▁ligado
▁|
nj
▁buéeee
▁auto
▁considera
▁point
▁caí
▁decidiu
Co
▁lindos
▁Per
víamos
▁resumos
▁gostamos
eço
▁cancel
▁modo
▁Car
▁jogos
3%
▁Aw
fc
pra
dc
▁boo
AD
▁voltou
▁Yaay
▁deixe
2=
▁achaste
▁falt
▁reprova
za
▁apetecer
sem
bb
▁lembras
▁Yeeee
▁Mar
▁queijo
▁deixas
▁:/
▁Demora
▁Fazer
▁seleciona
son
RA
▁gostares
ation
▁deixam
ramos
▁roubar
▁St
▁easy
▁valer
▁fechados
▁coming
▁Fi
▁vêm
▁FI
▁primeiras
Li
▁Ro
53
HA
rn
▁esc
47
▁Todas
▁tomas
▁livres
▁resolv
ren
ano
▁livros
▁Sn
▁watch
,+
▁seco
▁fossem
dp
jo
▁Yayyy
▁tre
mais
▁youtube
▁qua
AR
ixe
tá
mma
▁pes
vel
tn
▁soma
ual
15€
raio
▁bar
▁parado
▁respondes
simulação
▁tantos
ía
from
▁lu
CA
An
▁ofere
dg
▁demoras
▁nessas
▁dura
▁pint
▁sugeri
tive
lguns
▁preocupa
areço
▁selfie
▁afilhado
tudo
▁merece
▁alg
▁intensa
▁porão
▁consiga
▁página
▁minuto
▁chi
dx
▁sex
vista
▁mat
cial
ama
▁sn
▁distrai
▁vive
ela
▁repeti
nio
▁cli
▁goza
▁Pod
ft
▁bebe
▁desaparece
bby
▁guia
hahha
......
ível
▁copi
▁avança
▁experiment
ô
▁comece
adults
rocura
]
▁Biológica
▁GONÇALO
▁spider
▁Chegámos
▁Completamente
▁Domingo
▁Erasmus
▁Espanha
▁Experimenta
▁Imitadora
▁Incrível
▁Jesus
▁Niiiice
▁Parabéns
▁Primeira
▁Ridículo
▁Sabias
▁Setúbal
▁Significa
▁Wuuuut
▁amarela
▁antecedência
▁apetite
▁bondage
▁bêbedo
▁cookie
▁cotonete
▁desafio
▁desenhar
▁embarrassing
▁fritas
▁fruta
▁impressive
▁maxilar
▁mcdonalds
▁mecânica
▁palestra
▁perfect
▁promoção
▁puxar
▁rápida
▁santiago
▁school
▁simpática
▁slides
▁vazio
▁árvore
▁Better
▁Goodbye
▁febre
▁hostel
▁raquete
▁sensível
▁style
▁espirra
▁leiria
▁agarrar
▁borla
1&#125;&#123;1-\
▁braga
▁mudou
▁Açores
▁ipad
▁tremer
▁gestão
▁Grey
▁daddy
▁vossa
▁beeeem
▁crown
jpg
▁ginecologista
▁Maaaaas
▁fones
▁informação
▁Labs
▁ieb
▁soundtrack
▁aquecedor
▁deseja
▁martim
▁angst
nstru
▁confiante
▁Sexy
▁adeus
▁fábrica
▁licor
tacional
▁intervalo
▁cera
▁integrais
▁Feel
▁Abre
▁Santo
▁deitei
▁francesinha
▁aparar
▁Uber
▁chair
▁bolacha
▁inicio
▁Goza
▁António
▁corredor
▁material
▁show
▁falámos
▁else
▁Meeeesmo
▁padr
▁presidente
▁público
▁planeado
quina
▁desconfortável
▁necessariamente
▁Whaaaa
▁word
▁Cho
guest
▁feia
▁parque
culos
▁empregada
▁peço
▁verificar
▁atum
▁Bad
▁ocupada
▁renda
▁esque
▁pediste
▁paralis
__=
▁acidente
▁Menorca
▁verdadeiro
▁paz
▁reconhece
▁texto
▁falava
▁dica
itch
▁morta
▁prato
▁Chilla
▁saíste
▁Yeahhhh
▁falas
▁duro
smo
▁finally
▁Aconteceu
▁notícias
▁lágrimas
▁sobrancelhas
▁percebeu
▁conquistar
▁nojo
▁Noooo
▁formação
▁COM
tivamente
▁longo
scar
▁haveria
▁ouviste
▁body
▁envolve
▁forno
▁Ahahahahahah
SO
▁faltava
▁land
08
▁find
▁conseguem
▁almocei
▁nooo
gir
▁Pics
87
▁Cenas
▁conseguido
▁apaga
▁conseguiste
▁Comia
▁casal
▁tf
▁poderia
▁fazias
▁belo
which
▁Estavam
▁decente
▁pó
▁Cl
iros
▁Tchiiii
fla
▁chumbar
▁sandes
▁spotify
▁mari
▁corda
▁sentires
▁afk
▁Uhhhh
▁mentir
▁band
%20
▁even
▁poderes
▁daquilo
ME
▁fizesses
▁Bue
▁solo
▁devolve
posta
▁pics
▁dormia
▁serve
nada
anana
tim
erci
bro
lf
▁Chi
▁meter
AQ
▁sugerir
▁pedia
▁deram
▁At
▁filhos
▁Siiiii
▁Gu
den
▁Lembra
▁respons
▁fizer
▁sorryyyy
▁marcas
▁her
▁braços
▁ajudas
mn
▁Lo
gens
▁Yaaaaay
▁concorda
▁Vo
▁bc
▁does
cção
ntado
iiiii
▁(1
▁Acaba
ij
▁chegues
▁Cas
03
▁Falar
▁che
rid
=7
Se
▁corri
▁acer
py
cada
▁Res
ças
tivo
1-
AL
▁escreve
avas
tico
▁matar
xts
TE
▁Alg
▁primeiros
sure
▁pés
▁happen
▁aceita
▁Senti
▁antigo
▁saiba
▁criança
▁lábio
▁folha
▁Gosta
.........
▁Cara
88
▁voos
▁tri
OS
isto
tle
▁means
▁smart
▁aprendi
▁Mor
▁Val
nk
▁morre
ncontrei
stranho
▁45
aaaaay
&#064;
|
▁custar
41
▁cursos
▁Olaaaa
IA
▁hmm
▁hug
▁Chill
▁demoro
▁entrega
▁Tchiii
▁Aaaaahhh
▁acabe
424
ward
▁oferecer
▁bet
▁😢😢
&#125;
▁afeta
rarbg
┻
▁Apanhei
▁Apetece
▁Continuo
▁Facebook
▁Freitas
▁Fácil
▁Happy
▁Jorge
▁Nãaaaao
▁Wuuut
▁afilhada
▁agradeço
▁amarelo
▁application
▁boxers
▁brufen
▁buraco
▁cocó
▁convidada
▁cozida
▁dançar
▁dezembro
▁ecrã
▁episodio
▁espanhol
▁esquisita
▁farmácia
▁horrivel
▁indiferente
▁intelectual
▁jesuíta
▁limpeza
▁maçã
▁motivação
▁método
▁netflix
▁obrigatório
▁perfil
▁polaroid
▁polimi
▁polinómio
▁regularmente
▁relatorio
▁ruído
▁sanita
▁sebastião
▁settled
▁tribunal
▁vergonha
▁😂😂
▁😒😒
ノ
▁armário
▁woman
͡
▁appej
▁before
▁freak
▁money
▁homeless
▁year
▁Entãaaaao
▁Glad
▁fuels
▁mistura
▁when
▁expect
▁secretária
▁shut
▁Fair
▁decisão
▁mouth
▁temperatura
▁negativo
▁change
▁errado
▁errei
80
▁serious
▁worries
▁interesse
▁Again
▁sarcástic
▁batizar
▁lixo
▁cansativo
▁both
▁magnum
▁grau
▁morras
costumo
▁Wooooow
▁cerveja
▁couple
▁upgrade
▁cry
▁apoio
▁ariana
▁medida
▁frustrante
▁apertada
▁pressa
▁pack
▁sweet
▁queixo
▁Pronta
▁delegação
▁chique
▁deitada
▁12:30
▁head
▁Like
▁medir
▁finish
▁😘💕
▁Wink
▁Sorte
▁passadeira
▁soubesse
▁wok
▁dying
▁apertar
▁corações
2016
▁pink
noticia
source
▁Tamb
▁talento
▁Jantar
▁give
▁saíres
▁10:30
▁telefon
▁leio
▁vento
▁viol
▁might
▁filha
▁falso
▁Organiser
▁papa
▁Aero
985
▁player
▁houvesse
▁gravar
▁neb
▁manha
▁estrada
▁Rica
▁barra
:15
▁Rita
▁estudei
▁happened
▁terceira
▁trato
▁heart
▁manga
▁Nein
▁roma
▁tight
▁escala
▁privado
▁pasta
▁souberes
▁forever
▁respondido
▁confuso
▁periodo
▁shopping
▁😥
tiva
▁interior
▁receita
▁Super
▁irritado
▁apanhado
▁Sms
▁escond
▁pun
▁ganho
▁disposta
▁perdeu
▁arranjado
▁Awww
▁loss
▁edite
▁musical
▁encher
▁resultar
▁saído
▁fecha
▁Paga
▁risco
ears
▁Nesse
▁UM
▁rato
▁testar
▁passava
▁perdida
gante
▁pesado
▁domino
apar
▁cadeia
▁colo
▁sentado
▁masturbar
▁parei
▁levei
▁fly
▁pensaste
▁pada
▁arraial
▁tentado
▁Fim
eeesmo
▁lemos
▁Aaaah
raí
▁vivo
▁morria
▁Deal
DD
▁Ouve
▁pesa
▁garrafa
▁cheirar
▁perguntado
▁termo
▁tecas
▁Bro
▁provar
▁wa
▁luzes
ying
estar
▁virar
▁apartamento
▁compre
▁dormiu
▁ven
▁lentes
▁\
▁decorar
▁Over
▁delay
▁recebes
fica
▁previst
▁ಠ
▁andei
▁cansa
ped
▁pessoal
ould
▁Ohhhhh
▁poucas
▁happens
mg
▁Trata
▁sur
▁demais
77
▁tentas
▁pt
▁Ti
▁intensas
▁guardo
jd
▁prob
▁esperava
▁Dar
▁ne
▁mor
LA
▁ignor
▁levares
00000
000
XT
▁eight
▁Beij
▁vende
gica
vos
ik
kk
iiiiiii
8%
▁tema
▁quisesses
▁letras
izado
▁Yaaas
tável
!3
▁alter
▁ovo
▁passares
▁maus
▁ida
ED
▁velhos
gl
▁dif
▁Ola
roco
ign
▁pass
dn
▁Ana
tual
▁Ganh
aaaaahhhh
▁ajudo
▁perde
▁resolve
user
▁Omgggg
▁facebook
image
▁poucos
vc
▁Omggggg
▁byee
▁cur
lip
ool
▁Hiii
lia
▁cai
▁onda
▁Yaaaaaa
1&
eram
TA
sci
2%
▁estranhos
tri
9%
ahahahahah
▁mental
▁Usas
:30
oricamente
▁AH
▁rouba
▁dares
Pr
ró
OD
way
▁Aaaaahhhh
81
▁niceeee
▁Ki
▁suj
▁concertos
mmmmm
aria
Fals
ef
▁negro
wt
▁lin
▁pouca
▁sande
613
▁Comer
▁decora
yyyy
2_
▁magoa
kkkk
▁Che
encial
▁estra
vice
▁Ahahhahah
IN
raça
▁relatórios
▁AI
▁escolhes
▁Okkk
▁sofre
▁maneiras
▁chora
▁Naaaaah
content
BE
▁aprende
grande
euros
fixe
like
eeeesmo
▁Algum
▁Caga
▁janta
▁atende
▁joga
night
..........
▁fam
▁ocupa
key
▁volte
▁acorde
▁faca
▁Assum
▁conce
weet
▁movi
▁pensas
▁understand
objetiva
global
▁Concentra
rrumei
╭
╮
▁Agradece
▁Barney
▁Casually
▁Conhec
▁Impressive
▁Levantei
▁Messenger
▁Páscoa
▁Saldanha
▁WhatsApp
▁Wuuuuut
▁already
▁annoying
▁anurag
▁arranje
▁arriscar
▁avisei
▁bikini
▁blood
▁brasileira
▁cabeleireiro
▁cachecol
▁calculadora
▁cardíaco
▁choice
▁dermatologista
▁divirt
▁enjoy
▁fáceis
▁galveias
▁hoodie
▁jacobiana
▁julho
▁legumes
▁possíveis
▁ridiculo
▁scroll
▁sobrinho
▁swipe
▁telemovel
▁tempestade
▁três
▁videochamada
▁volume
▁vomitei
▁welcome
▁wolf
▁álgebra
▁índice
▁óleo
▁úteis
▁Pipoca
▁Yeaaaah
▁alunos
▁always
▁around
▁arruina
▁borrach
▁fault
▁madrinha
▁mijar
▁máscara
▁praticar
▁sortuda
▁through
▁triplo
▁Welcome
▁arranca
▁erraste
▁escorreg
▁imeeeeens
▁kink
▁mudança
▁produto
▁Últim
▁peasy
▁carrinha
▁mousse
▁boleia
▁fnac
▁nervous
▁pré
▁trupes
▁vetor
▁Sucks
▁portugueses
▁Errei
▁Okaaay
▁romântico
▁whatsapp
▁Play
▁Torna
▁muuuuit
▁trajar
▁acesso
▁nerd
▁previsível
▁Pausa
▁frito
▁vidro
status
▁rebenta
▁ingles
▁leite
▁OMG
▁Mini
▁joelho
▁orgulhoso
▁little
▁raiz
▁Work
▁david
▁ftw
▁:&#039;)
▁Christmas
zoma
▁Turim
^2&#125;
▁numero
▁elevador
▁estalar
▁decide
▁chatice
▁ohhh
▁$$\
▁génio
▁Epá
▁Congrats
▁panquecas
▁Carlos
▁walk
▁sustainable
▁lanç
▁basic
▁graça
▁recebo
▁officials
▁depressa
▁preocupações
▁cansaço
odisseias
▁Who
▁saltar
▁após
▁lube
▁funcionou
▁smh
▁parede
▁homens
▁hut
▁makeup
▁vaca
▁baguete
▁inesperado
ible
▁seguidas
▁decido
▁percas
house
▁deitado
▁20:30
▁mancha
▁tried
▁Mona
▁Nossa
▁março
▁uber
▁limpo
▁apertado
▁siso
▁preso
▁Bebi
▁dumb
▁obrigar
▁Belém
▁enganei
▁atrase
▁inside
▁Nintendo
▁capitã
▁sorriso
▁gozo
▁gama
▁Aaaaaahhhhh
▁disponível
uke
▁traz
▁elaborado
proxima
▁Recebeste
iiiiiiiiiiiiiiii
▁Dua
▁picar
▁malas
▁Veremos
▁tshirt
▁reparou
▁Saaaame
:35
▁aumentar
▁curva
▁feio
rança
▁fake
land
▁sentimento
▁Ligo
▁cold
▁shot
▁trocado
▁sir
▁Escreve
▁Toca
▁pressiona
▁preocupada
▁nervoso
▁arranjava
▁morte
▁mona
▁levava
▁corrida
▁Passei
▁pague
▁cavalo
▁prender
▁reparaste
▁descansada
▁Bol
▁chamou
▁Correção
elho
▁Muda
▁aturar
▁conhecido
▁pato
▁promet
▁demorou
▁indeciso
▁Mata
▁tesla
▁updated
▁Conseguiste
▁vendo
▁custava
▁maça
JE
▁arranjou
▁hugo
▁2°
▁die
yyyyy
▁devolver
▁Bela
▁usado
▁abriu
▁Mando
▁entretanto
▁Mpt
▁bola
▁Corte
uddling
▁snap
MOS
▁aplicar
uuuuck
▁usamos
▁pagou
▁controlo
▁Teria
curso
▁tirada
▁sentia
▁deixava
▁trajado
either
▁noob
▁needy
▁boobs
▁compara
▁fech
▁colher
▁Amen
▁They
own
▁depend
side
▁tentou
▁into
▁gg
jw
▁candidato
▁ombros
▁panados
lhões
▁termas
▁demonstrar
▁voltava
liga
▁vier
▁Did
▁Gonçalooooo
▁~
▁cartas
▁geni
▁There
XX
▁créditos
▁teremos
▁Demoras
Ya
▁horários
▁fina
▁ba
▁pares
▁saltos
▁Okkkkkk
▁moras
▁comeste
▁havid
▁visses
lamento
▁Aiiii
ismos
▁nasa
▁Talk
▁comum
EU
▁Heyo
▁colar
▁acontecem
1_
morro
▁Ted
▁formal
▁saibas
cation
cente
▁cas
bom
▁Ru
nw
▁afilhados
▁saía
not
▁bri
▁move
▁preferi
DV
ian
▁venhas
dio
▁porno
bid
▁conversar
▁correto
▁Casa
▁ovos
LO
=5
▁fichas
fin
/17
▁implica
cordaste
▁Gro
fal
▁Ily
▁album
NT
pai
onze
▁fartar
rp
ibi
eeeeee
▁Levas
▁encontras
▁CO
▁suar
Zh
lack
▁Acabar
Id
▁ben
5%
▁sc
▁gatos
8.
nel
▁mora
ç
▁Y
ares
▁ina
▁repo
▁menciona
▁tiras
eiras
EI
▁corresponde
vida
▁rei
▁colegas
▁pri
▁Babyyyy
▁cm
:45
▁oposto
cil
▁tort
dura
▁0,
▁Ganha
ior
▁invent
▁respira
IC
▁acen
▁SE
EB
▁compr
▁nasce
▁ni
▁cumpri
usta
▁conhece
▁irem
ban
Di
nO
▁concordas
▁X
▁60
))
aaaaaaa
▁Cons
OL
▁diaaaa
▁distraíd
vido
ties
▁recebe
▁Doi
▁sobreviv
▁voc
▁bru
▁bif
DI
▁36
kd
▁bug
▁engraçadas
alidade
▁id
LL
▁Esp
▁Sal
ggg
Bo
79
▁exist
íc
bras
58
▁Red
tório
?????
uuuuu
gg
▁cat
Fi
morar
3€
▁chumba
atura
apping
▁Deita
▁calha
utocarro
▁CA
nga
polic
▁cro
lid
▁Explica
▁prioridade
▁salto
▁duvida
▁Muita
▁beijinho
IM
▁troca
▁sleepy
▁terias
▁hell
▁Awwww
▁bomba
info
▁💜💜
pc
▁visse
▁Yeee
▁NO
inder
▁gen
▁concordar
▁Dizem
▁chu
▁Okkkkk
play
quil
mbora
twitter
💕
comprimento
✨
True
body
até
▁conserva
▁Smart
taste
uzinho
▁chin
▁arma
Esta
▁alemã
digo
group
mesmo
▁Yeahhh
book
▁indecis
▁aquece
▁Nenhum
▁moment
▁gel
▁encosta
estetica
▁despe
agra
▁país
limp
▁record
▁worth
▁concentra
▁Recebe
▁atrav
▁organiz
▁aconteci
▁Aaaaaah
▁Ho
nice
▁adivinh
▁Feliz
▁brinc
1&#125;&#123;
ício
▁micro
ferência
Google
______________
uawei
▁Habitua
ecnicamente
primir
samouco
theater
Ó
ʔ
ʕ
ᴥ
–
▁Adormeci
▁Anywho
▁Aviso
▁Barcelona
▁Bárbara
▁Central
▁Claaaaro
▁Cálculo
▁Frango
▁Gameboy
▁Literally
▁Niiiiice
▁Nutella
▁Resolv
▁Savage
▁Videochamada
▁Yoyoyo
▁Zelda
▁aconteça
▁anteontem
▁apelido
▁aprecio
▁artifício
▁asshole
▁attractive
▁automaticamente
▁automático
▁biológico
▁bloqueado
▁bunny
▁básica
▁básico
▁bêbada
▁caderno
▁castanho
▁chop
▁cliché
▁clássico
▁committe
▁condicionado
▁conquistei
▁contexto
▁convosco
▁courgette
▁crush
▁cérebro
▁defeitos
▁desodorizante
▁digital
▁embalage
▁energética
▁escolho
▁espetáculo
▁excelente
▁expectativas
▁eyeliner
▁floyd
▁fofinho
▁frigideira
▁gossip
▁higiénico
▁honey
▁humor
▁hurt
▁imagine
▁incluída
▁itália
▁jump
▁juntas
▁machadex
▁milagre
▁módulo
▁notificação
▁picuinhas
▁premium
▁presença
▁propriamente
▁quantidade
▁reconheci
▁ridicula
▁segredo
▁sinceramente
▁stories
▁símbolo
▁trágico
▁tulicreme
▁vergonhos
▁where
tumblr
▁Braga
▁Consider
▁Fancy
▁Guarda
▁Raposo
▁antecipa
▁camião
▁convidou
▁hamster
▁morango
▁okaaay
▁reebok
▁remember
▁significativos
▁ótima
💦
▁alguem
▁configura
▁magoou
▁pissed
▁ritmo
▁Airbnb
▁asneiras
▁choro
▁pecado
/#/
▁Carrega
▁Leiria
▁costume
▁incó
▁indice
▁rush
▁Saaad
▁Segundo
xiaomi
▁Dream
▁sortudo
▁volei
▁jedi
▁terceiro
▁Mudei
▁aparecia
▁barata
▁determina
▁elétrica
▁calhou
▁convidar
▁minutes
▁riding
trotinete
▁adulta
▁sobremesa
▁foder
▁informações
▁💛💛
▁okok
▁conect
▁pdf
▁treinas
▁diagrama
▁development
▁theory
▁fonte
▁Nessa
▁queimada
▁lavei
▁preocupo
▁subfil
cumula
reddit
▁Chá
▁ahahhaha
▁fluidos
▁animar
▁aproximada
▁Bluetooth
▁miudo
▁BRINCAR
▁future
▁transferência
▁baixe
▁cheese
▁Achava
▁horny
▁stock
▁carinhos
▁wifi
▁celebrar
▁jelly
dicação
▁apresentações
▁cereais
▁quentinha
▁+/-
▁gordo
▁Question
▁alterações
▁photoshop
▁irracional
=2019-01-01
▁gesto
pher
▁substituir
espanha
▁Laura
destaques
▁adorei
ilipa
▁bang
▁vosso
bucks
▁gritar
loira
ético
▁Desliga
▁botas
▁14:30
▁aqueci
▁Teoricamente
▁senhorio
▁registado
lection
▁screenshot
▁chiado
▁Head
railer
▁definidas
▁contacta
▁6:30
▁PARA
▁Lamento
▁pokemon
▁ranho
▁duração
▁picada
▁obrig
▁interest
▁Life
▁lazy
▁Rude
▁santa
▁Marca
▁Tho
▁Xau
candidatura
▁9:30
▁Hola
▁jogava
▁Igual
▁estacionar
▁Terás
▁enche
▁inventar
▁Cheira
▁forget
▁teclado
▁quality
▁lenta
fk
▁frustrada
▁must
▁inchada
▁pormenores
▁pagina
▁movimento
search
▁produtiva
▁psicológico
lets
▁individual
▁👌
▁moder
▁Naaaaao
▁divertir
▁impressionado
▁tranquilo
▁saíram
▁Ehehehhe
▁confiar
▁18:30
▁espírito
▁kill
▁yolo
▁Pedi
▁fisicamente
▁Nesta
▁secante
▁Mudaste
▁namoramos
▁pê
▁Pret
▁entrava
▁vieram
=2018-12-3
▁Alemanha
▁focar
▁alemães
▁Agosto
▁lutar
▁turnos
▁mexido
▁habituar
▁acordava
uponho
▁assumir
▁corada
▁drink
▁access
▁buddy
▁café
quiz
▁vinho
▁organiser
▁usava
▁100€
▁luis
▁despir
▁recuperar
▁farei
▁respeito
▁trying
▁areeiro
hot
atriz
▁vibra
▁avançado
▁visão
▁Sí
▁casota
▁facada
▁Chora
▁erva
▁🌙
▁comparar
spec
▁30€
▁seeing
▁level
▁2€
▁role
▁sobreviver
▁everything
▁000
▁dabs
▁class
▁Precisava
zzz
▁fé
▁farte
▁10€
▁concorrer
azo
▁Comeste
▁teaser
▁sleepar
▁brinques
▁squats
XA
ason
Vou
=4
▁rece
▁compramos
reja
▁Lame
▁00:
▁average
▁yesss
▁composta
UC
▁Jant
▁hei
▁demorado
▁mola
IY
aaaaaaaaaaaaaaaa
RU
▁combin
💖💖
▁Yayy
▁many
▁exige
AI
indow
▁key
▁namorava
▁FO
aze
▁brilh
▁bla
▁descrever
▁Noted
▁came
▁Team
▁mota
Eu
IRA
▁lido
▁Minha
▁segue
▁resulta
ncl
▁pesadelos
▁manta
▁tenham
▁Suuuu
▁paro
▁mostrou
viam
▁ignorar
sub
anima
▁duh
▁50€
vW
▁apaguei
▁tuna
ARD
▁acrescenta
▁Mandava
ware
▁escuras
▁Nicee
-18
▁YE
▁paragem
▁Hmmmmmmm
▁puser
elly
▁contaste
▁Compro
▁pain
▁pul
▁testa
▁prioridades
▁calhas
▁toco
jf
▁Mete
aaaar
gira
▁negros
=8
▁misso
ceitava
▁magr
entei
eca
▁honesta
▁escreves
▁Falo
▁antigos
▁48
▁Hm
▁conte
▁pin
rning
▁content
▁king
▁mereces
▁selfies
▁gostasse
▁????
itório
▁viva
▁Ur
lice
CO
shop
▁Hav
ém
▁Cont
over
ativo
He
▁............
▁gast
iR
dest
▁bebidas
▁Opaaa
isar
▁brun
▁sobrevive
▁virmos
▁Ly
▁esperares
▁conhecias
▁pretas
▁teorica
mino
▁Bar
▁pop
▁19.
▁empresta
/9
rendo
▁tensão
▁perdes
eguei
▁osso
▁poss
▁invers
▁Dou
▁podiam
NF
▁porco
▁limites
▁teen
entre
▁anu
enso
▁Deus
▁esca
edit
▁cant
▁Gr
cur
▁???
wk
720
cab
▁cost
▁neg
ago
920
ncluindo
local
oto
timo
▁desenvolv
bert
EV
▁encontra
mulheres
prime
▁Respo
▁loca
TY
▁conclui
ton
MP
jq
▁amore
zz
▁DO
▁Voltar
▁dir
eek
gQ
url
ial
aaaaaaaaa
▁ahahahaha
▁Siiiiiii
▁Ohhhhhh
judou
▁edu
▁corrigi
BJ
DQ
▁Sorryyyy
▁gasto
1€
▁realiz
▁reserv
MT
▁participa
▁souber
▁serie
/21
▁Sorryyy
▁sho
▁surpreend
▁Chei
▁amua
▁Send
GA
▁sha
ated
ES
elf
▁tencion
▁import
▁Aproveit
▁cent
▁honest
▁animador
▁secret
▁noooo
media
cking
▁falha
Tp
anny
isso
tima
▁desisti
▁estrela
▁namora
▁escura
▁crédito
▁resumo
▁transporte
▁lente
▁gasol
▁Almoç
=&
posts
alk
ónia
ked
▁fio
▁combina
▁perce
▁Todo
pensa
▁babyyyy
▁fixeeee
▁univers
tttt
💓
xperimentei
mark
▁cabe
💙
lembra
▁omgggg
mariana
drive
traje
▁empres
▁calcula
sleep
true
pessoa
também
dormir
volta
lugar
spera
▁despedi
▁Ewwww
▁espeta
▁Quant
gic
down
noite
▁carrega
▁respeit
▁recupera
▁Omggg
▁cresce
lite
▁provo
▁babyyy
▁energi
get
▁habitu
▁put
▁hor
▁Acabo
▁maio
▁chuv
gente
▁relaciona
giro
▁aprov
▁integra
▁choca
▁frustra
▁quadr
ranja
view
▁reuni
▁sangr
&#123;3&#125;
▁chov
ernardino
▁express
▁😘😘
▁substitu
ximo
▁conduz
▁Bati
xplorer
étrica
médica
💗
canon
cópi
▁Esqueço
▁ausentar
▁procrastin
▁stalkear
JYQ
^2&#125;&#125;$
ccurate
disciplina
leatoriamente
relevante
rrived
vangelho
ívio
▁Aprende
▁Coimbra
▁Compreensível
▁Costuma
▁Daaaaaamn
▁Dobrik
▁Eduardo
▁Eventualmente
▁Excited
▁Fátima
▁Inception
▁Interessante
▁Leonor
▁MORRE
▁Orgânica
▁Percebi
▁Perfect
▁Pizza
▁Promise
▁Saramago
▁Siiim
▁Skype
▁Sábado
▁Trabalh
▁agulha
▁aleatório
▁alternativa
▁alínea
▁ambiente
▁ananás
▁anything
▁atitude
▁açúcar
▁bolonhesa
▁campinacios
▁carbonara
▁childish
▁chores
▁christmas
▁chupão
▁cinzento
▁clingy
▁clitóris
▁cogumelo
▁coluna
▁condutor
▁coordenador
▁crazy
▁descobre
▁distinguir
▁divergência
▁drained
▁décimas
▁empréstimo
▁enjoado
▁ensinar
▁entusiasmad
▁esteticista
▁estupidez
▁explorar
▁fausto
▁festival
▁fiambre
▁frigorífico
▁fórum
▁gabinete
▁grelhada
▁gémeo
▁hackea
▁hilariante
▁icónico
▁inclinad
▁indicada
▁infantil
▁infelizmente
▁inferior
▁influência
▁iniciativa
▁inscrição
▁laboratorio
▁literally
▁lubrificante
▁líquido
▁minutinhos
▁moldura
▁monitor
▁months
▁naughty
▁nigga
▁objeto
▁paciência
▁palmira
▁partícula
▁película
▁perpendicular
▁prazer
▁preferível
▁propinas
▁pubg
▁reduce
▁refeições
▁reflex
▁represent
▁respondo
▁roadtrip
▁rodoviária
▁rossio
▁rádio
▁salsicha
▁simulador
▁skills
▁skype
▁spray
▁squad
▁sucesso
▁swear
▁thumbnail
▁torradeira
▁traumatizado
▁tupperware
▁ténis
▁variedade
▁wallpaper
▁warming
▁westworld
▁woooow
▁Álgebra
▁Ótimo
▁útero
🇹
😶
oulmates
▁50/50
▁Actually
▁Partilha
▁Power
▁White
▁açorda
▁carolina
▁colombo
▁confirmo
▁convencer
▁deslocar
▁excitad
▁iPad
▁legit
▁monument
▁outubro
▁reboque
▁relaxa
▁shook
▁tampões
chosen
▁Exame
▁Vasco
▁gonced
▁gravata
▁industri
▁sometimes
▁soutien
referr
▁Apanha
▁cirurgia
▁espuma
▁garagem
▁impresso
▁internacional
▁viewer
▁Pessoa
▁juro
▁possivel
▁prefixo
▁Luis
▁SMS
▁Saaaabes
▁assumo
▁ceninha
▁esticar
▁inovar
▁loiro
▁Fnac
▁Niall
▁cuddly
▁dildo
▁parafuso
▁entanto
▁origem
▁score
▁tolerância
▁Twins
▁doubt
▁Saaame
▁dimens
▁reage
▁válida
sparguet
▁Naaaaaao
▁Queimei
▁operada
▁pilhas
▁quentinho
▁safar
▁Beeeem
▁flash
uniplaces
picy
▁Europe
▁Limpa
▁desfocada
▁grey
▁finalistas
▁injust
Lightroom
capacete
▁Eheheheh
▁ligeiramente
▁Ahahahhaha
▁adulto
▁ahhaha
▁onesie
▁agarras
▁tempinho
▁fechadura
▁eleições
▁pedra
▁Nude
▁ausência
▁zero
▁beautiful
▁general
▁overview
▁alternada
▁preguiçoso
▁prejudicar
▁cega
!!!!!!!!!!!!!!!!
▁desnecessário
▁devagarinho
▁diminuir
▁limão
▁favorece
▁terreiro
▁Cozinha
▁conselho
▁interagi
▁Altera
▁Roger
▁chines
▁threesome
ngoli
▁Cansada
▁doença
▁durma
▁semelhança
gratis
▁mecani
▁taxa
worten
▁aprecia
▁sensor
fbc
▁Portugália
▁transferi
▁açores
▁Ughhh
85€
▁saúde
▁patins
▁duvido
▁namoro
▁tentativa
double
▁Outros
▁sarcasmo
▁station
▁oops
▁nothing
hannel
▁assustada
▁cortejo
▁relate
▁journalist
▁reclamação
▁marques
▁dorida
▁resistir
▁Admito
▁Review
▁stick
▁Julho
▁naaaao
▁alegr
▁critica
▁Overall
▁😍😍
▁entender
▁clicar
▁futura
▁21:30
▁prometido
▁paralelo
▁coninhas
▁space
▁Siiiiiim
▁born
▁geo
cultura
▁passámos
▁postura
▁picante
▁Atende
▁half
rroios
▁Duh
▁iphone
IRO
▁gps
▁inveja
énio
▁caril
▁diário
▁militar
▁quick
▁Morrendo
▁hipot
▁suponho
▁bolso
aguarda
▁desativ
▁desligas
▁Long
▁constantemente
▁oiço
▁Março
▁motivo
▁planta
▁desperdiçar
▁fail
IST
▁Direi
▁hear
▁17:30
▁incrivel
▁11:30
▁comparação
▁Social
▁Totil
▁entao
▁cantava
▁Compreendo
▁clima
▁resulte
▁8766
▁Grava
▁odeia
▁irmao
▁ponteiro
vivê
▁preparado
▁garantido
▁desliguei
▁estudante
▁realizar
▁mark
▁gilette
▁esconder
▁lingua
▁Sik
▁plu
▁adivinhar
▁flor
▁MAS
▁Paris
▁ajude
▁carrego
asanha
▁desisto
▁15:30
▁carregada
▁yeaaaah
▁9:50
!!!!!!!!!
▁crying
▁alive
▁aguentei
▁Esprem
imdb
▁nula
▁rock
▁12°
▁decathlon
^4
▁arrepender
▁Senhor
▁Amanh
▁desmaiar
▁garantir
▁alimentar
▁escov
▁destino
▁passageiros
ARQ
▁magn
▁importares
▁gata
▁independente
▁incha
▁alma
▁exam
▁presa
▁menu
▁pista
▁compromet
▁chef
pirate
▁saying
▁relacionado
▁psic
ncios
▁base
▁Bate
▁tentes
editaste
▁Run
▁second
▁atualizar
▁Deep
▁Win
ARA
▁4€
odles
culto
▁tapar
▁sofri
▁correta
▁plana
▁faltou
▁interessada
éci
▁furo
▁considero
tional
proxi
▁Prest
▁unica
:25
▁lembrado
▁decision
▁thinking
▁250€
▁Noob
quinho
▁debate
▁leia
▁improv
:00
▁place
▁fds
fied
▁conheceu
publico
▁despedida
▁naaaaao
▁latex
▁rio
▁compreender
▁antibiótico
éis
▁fechada
▁yoda
▁desvi
▁Star
▁Esteve
▁considerado
▁fiquem
▁tiger
▁escreveste
▁needed
▁criei
gressivamente
clips
▁definido
▁Nun
▁estudaste
XW
▁lago
ZZ
nix
▁ipho
▁ponta
▁maioria
▁🍑
▁🧡
▁conhecem
▁atender
▁project
▁mic
▁25€
repes
roupie
VP
▁vestida
▁cutest
telecomunicações
take
DX
▁match
ssociação
▁evita
▁respondeste
▁baixado
ambas
▁atrasou
detalhe
▁despi
▁Calma
▁Waiting
▁tomada
Sq
qR
▁pay
▁adormeças
▁alergias
▁capacidades
▁emblemas
▁kebabs
▁lyrics
▁Almoçar
▁deveria
▁rapazes
▁desaparecer
KP
KQ
▁GO
▁made
▁demorava
▁dobro
1%3
▁1%
PF
▁usasse
dicionei
▁peru
▁figure
▁vêem
▁twitter
▁nua
▁CP
▁Ignora
ache
scan
▁acabamos
ember
ringe
dois
▁funcionam
▁beat
page
▁Deram
▁&#064;
▁decidimos
▁person
▁fixo
US
694
▁ideal
▁song
▁bio
▁suada
▁Estud
▁afta
▁passaste
▁Aulas
▁Desculpada
india
▁topic
▁tiraram
▁ger
eeeeeeeeeeeeeeee
▁andam
▁passeio
▁Ficava
▁mostrares
zip
▁bal
amor
▁gostaram
▁Tw
▁Ui
▁Olaaaaa
▁ouviu
▁estrelas
ssert
wise
Vi
▁Lava
▁diabo
▁responderes
▁Teste
▁compreende
.5€
▁mant
▁chegasse
▁fita
▁campa
▁acabam
▁veremos
ture
▁ESTA
▁começam
▁falam
▁Sair
ferent
ntrei
▁cam
▁quote
▁familiar
▁Ahhhhhhh
ização
▁YA
▁Sentir
arth
▁fel
▁cc
▁andares
Ud
▁teso
band
▁leres
▁aconselha
_9
▁assalta
fw
▁molh
YH
imple
nique
▁gag
▁Tha
▁discutir
▁envergonhad
▁vote
eza
etting
ejo
▁Ahahhaha
▁pick
CH
fit
▁assina
▁Gra
cê
▁infe
zinho
▁Tom
▁LE
NY
dentificar
ulação
▁horr
▁bol
876
zN
▁inspira
VZ
▁delega
▁sab
8:30
rena
▁nascer
▁Maaa
rip
poi
................
deira
........
▁sobe
▁pusere
▁alé
▁Mad
▁Babyyyyy
▁afasta
pF
kx
▁bala
▁mencion
ahah
TL
▁somar
▁Saaaa
▁Atira
SV
NC
olha
pira
íb
▁usá
▁elogi
mpl
uja
▁calar
▁vend
AT
UI
CN
760
busca
hora
▁guard
▁apert
▁pesar
FU
▁ignora
▁Naquel
ario
▁Gast
NI
EY
▁Bou
▁1000
▁incomodar
▁Chic
▁assin
▁NA
ária
271
▁emocion
▁each
duca
acho
zinha
plesmente
▁italia
▁atras
▁Hmmmmmmmmm
▁familia
dul
ntagem
icio
▁enviad
▁suger
onde
pareceu
▁confus
video
ement
agas
▁morde
ette
partamento
mbos
▁Lembr
▁pesadelo
▁panado
▁ombro
trás
▁Cena
▁resist
▁2.5
eral
▁chave
▁batata
▁evento
imprim
▁Escolh
▁figur
▁sorryyy
▁esf
▁wor
verá
▁canal
ricas
ivamente
▁apresenta
▁Buéeee
▁hello
▁goal
▁identifica
ído
ucar
▁extrem
▁esforça
ntretanto
taaaaao
cadeia
▁boyyy
portugal
playlist
▁nervos
bilhete
reparei
weird
normal
percebi
Mariana
utfit
Lisboa
hoje
ainda
achas
ponto
Faze
cicl
campa
nX
(?)
back
vejo
▁program
▁estiv
girl
▁Encontra
▁trajad
melhor
Mil
▁adiciona
▁Aaahh
▁Olh
▁planea
▁associa
▁pude
▁multi
▁filma
▁descreve
▁model
▁positiv
▁frances
▁sorri
▁visita
▁Quand
mizad
▁assumi
that
▁reparo
está
▁sort
▁decl
▁pergunte
▁inclu
Já
▁president
▁important
▁menti
▁tecla
▁diversi
scrições
▁desapont
ncomoda
▁kil
▁inscrev
▁exata
ryanair
stupid
▁trigger
▁competi
▁parametriza
▁históri
index
medium
Phone
▁15:3
▁depila
▁Christ
ologicamente
ídeos
layout
▁concre
Genius
smartphone
▁conju
portugues
ância
Development
economi
💘
▁AHAHAHAH
(((((((((((((((
resíduo
▁atrapalh
▁embirr
wiki
▁compromisso
▁estabelec
▁investi
3;3&#125;&#125;$
MZS
confortavel
enfermeira
fundiste
ggressive
goTDUA
grateful
krypton
lentejano
lândia
mecânico
ngenharia
ʖ
͜
━
▁ACONTECE
▁Abril
▁Absolutamente
▁Aconselho
▁Adormece
▁Antunes
▁Assembl
▁Chair
▁Clearly
▁Confirma
▁DiCaprio
▁Disagree
▁Encomend
▁Engraçado
▁Exactly
▁Friend
▁Hélder
▁Impressionante
▁Instagram
▁Interesting
▁LINDO
▁Mensagens
▁Novembro
▁Outubro
▁Previsível
▁Public
▁Python
▁Santander
▁Sayonara
▁Spoiler
▁Sporting
▁Stalker
▁Thought
▁Tomorrow
▁Watching
▁abstraç
▁aceitável
▁agradar
▁agressivo
▁algebra
▁analógica
▁angular
▁apropriado
▁arranha
▁arredondamento
▁arrependo
▁autoestrada
▁bacalhau
▁background
▁bairro
▁bloqueou
▁bónus
▁caracóis
▁carteira
▁cenoura
▁chapéu
▁choque
▁cidadão
▁cinzenta
▁comunicar
▁confundi
▁conheça
▁convencid
▁cumprimentou
▁cupões
▁currículo
▁deadline
▁decifrar
▁deprimid
▁desarruma
▁desiludi
▁desilusão
▁diploma
▁diverte
▁documentário
▁eficiente
▁engorda
▁entusiasmo
▁espanhóis
▁espectativas
▁eventualmente
▁evoluç
▁exterior
▁feminino
▁filetes
▁funcione
▁futebol
▁gillette
▁girlfriend
▁guerra
▁gulbenkian
▁healthy
▁horríveis
▁hungry
▁icónica
▁impacto
▁indefinidamente
▁instrumenta
▁instruções
▁iogurte
▁ketchup
▁lemonade
▁licença
▁manutenção
▁margarina
▁medicine
▁microondas
▁monstro
▁montanha
▁mármore
▁mínima
▁negativa
▁nenhuns
▁nevoeiro
▁notificações
▁nublado
▁níveis
▁obviously
▁oftalmologista
▁opportunity
▁orelha
▁otorrino
▁paciencia
▁partilho
▁patrícia
▁pequenino
▁permanentemente
▁personagens
▁publicidade
▁python
▁raízes
▁recomenda
▁recorrencia
▁recusava
▁regress
▁ressaca
▁revelar
▁ridícula
▁russa
▁sapadores
▁saramago
▁satisfying
▁silhueta
▁simbólic
▁superfície
▁sérgio
▁telemóveis
▁together
▁tópico
▁uncomfortable
▁variáveis
▁vazia
▁verifico
▁vigiar
▁voleibol
▁vomitou
▁wrong
▁Água
▁áudio
彡
益
🅱
🏼
😎
😓
onflict
▁Always
▁Cebola
▁Conheço
▁Embrace
▁Plebe
▁Yeaaah
▁astral
▁blue
▁cabine
▁desligado
▁engravidar
▁ensaio
▁family
▁horizon
▁impede
▁menstruação
▁músculo
▁nudge
▁ofereceu
▁pedaço
▁protetor
▁spice
▁substituição
▁swag
▁verruga
herlock
▁Comboio
▁Control
▁Ttyl
▁azuis
▁bicho
▁coitado
▁darkness
▁dossier
▁doutores
▁esticado
▁insane
▁mamilo
▁partilhe
▁pulveriza
▁recomendo
▁stream
▁wild
▁Becky
▁estragou
▁hpv
▁instint
▁xaxa
▁Great
▁Prenda
▁coisinha
▁deprimente
▁educação
▁goooood
▁jovens
▁pacote
▁pornhub
▁sushi
boyfriend
emprego
ikipedia
ropbox
theless
yyyyyyyyyyyyyyyy
▁Punha
▁Pára
▁cheesy
▁clone
▁coçar
▁magia
▁AHAHAHAHAH
▁Atchas
▁cancro
▁entremeada
▁luxo
▁tarefa
^2&#125;&#12
aaanks
▁Import
▁artista
▁circ
▁drop
▁irresponsável
iloveputarias
▁appetit
aspx
bracelet
▁colete
▁electro
▁salmão
Continente
venida
▁doggy
▁importância
▁Calcula
▁ningu
▁área
02.4
▁acertei
▁vertical
▁cray
▁cream
▁ferro
AskReddit
▁plástic
▁1.78
▁Verona
▁gif
▁romantic
lecula
▁Giro
▁sofro
▁veneza
▁primark
▁gemer
▁desesper
▁pessimista
▁avaliação
▁esperança
▁genero
▁olaias
▁Piada
▁benfica
▁correntes
▁Aaaaaaahhhh
▁fatia
▁Nolan
jetivo
▁Naaah
▁odiava
ternaciona
▁soluções
▁esgota
▁GOST
▁menina
▁improvável
??????????
▁tirso
▁assinatura
▁vans
▁louca
%2520
▁compressa
▁assoar
▁Mimi
▁afeto
▁Samesie
▁Merda
▁risos
▁susto
infant
penny
▁concurso
▁After
▁oxig
▁validade
▁fugir
▁sines
▁caloira
▁escrita
music
levis
▁famoso
▁queimar
▁reuniao
▁showman
▁bump
▁fininhos
▁internet
▁encravado
▁finger
strange
▁sweetest
▁samsung
▁seeeei
▁week
2606
▁Awake
▁every
▁maluco
▁Fml
▁joana
▁atropelado
▁Ignored
▁13:00
Money
▁Segui
nterpret
▁obrigação
▁traía
▁maluca
▁Honey
▁verdadeira
club
etiquet
▁descoberto
▁lixar
▁experimentaste
▁Ahahahahahha
▁existir
▁separados
▁neither
▁Ideia
▁kfc
________________
▁molhado
▁bored
▁condições
▁veia
▁24/7
▁coelho
😢😢😢
▁pagamento
5_0
▁Fecha
▁resolvido
▁parametrização
▁mantenh
▁500€
▁aerodin
▁organizado
▁camp
▁inspiração
▁palms
NDA
▁hun
▁agua
▁acus
▁Compensa
▁caguei
▁toler
▁brave
▁matter
▁vagas
▁assustar
▁Sessão
▁19:35
▁Ahahahahahahah
▁sources
▁troque
▁expetativa
▁Gotcha
▁batido
▁bueeeee
▁China
▁consci
▁foda
hub
ggggggggggggg
▁Icónica
▁Levo
▁Agradecia
▁explicador
nimal
▁cough
Apple
▁janto
▁veste
▁reason
▁pilot
▁ahahahahahah
▁Yeyyy
▁asiático
^2+
▁outcome
ahahaahh
▁levanto
▁Dourad
▁encontrava
▁centrad
▁involuntário
▁constipada
diogo
trong
▁estima
▁cozinh
▁Norte
▁fraco
▁controlado
▁Felizmente
▁Cuddling
▁lambe
tanas
▁Perguntei
▁consideração
▁sermão
▁wannabe
▁Ufa
Multi
▁front
▁susp
▁negar
UCK
▁larry
▁espada
1&#125;&#123;3
▁quadrado
▁decote
▁dorido
▁1000€
arcelo
fron
inador
▁virilha
▁hand
▁irónico
▁ofereceram
chael
▁Metro
▁laura
▁paisagem
▁Realmente
▁expliquei
▁católica
▁faceis
▁cobra
▁feed
▁assada
ject
ceira
▁morto
▁hair
▁exagerar
▁novembro
▁primária
▁❄
▁😳
▁reci
▁comercial
ltima
▁QUER
▁insultar
▁renovar
▁reclamar
▁Acabaram
▁14€
▁gun
▁estragado
▁necessário
▁sintomas
▁entendo
▁Soon
ustainable
▁1:30
quantit
▁senhoria
▁setembro
iguel
▁6€
▁11°
▁dramática
▁transmiti
▁organizada
▁Sentes
▁reagiu
aaaahhh
▁Fart
cionar
▁2:30
▁jantaste
▁bebeda
▁legenda
▁canso
▁friendly
▁✋
▁Anal
▁selecionada
▁tentava
good
▁Real
▁adiantar
▁ultrapassar
▁países
▁tirava
tail
cala
▁falece
▁pente
inuto
▁francesa
▁apoia
▁alinha
gnit
▁Doeu
▁pati
▁instala
▁Natal
▁8€
▁conhecemos
▁bone
▁trazes
▁perdemos
▁interessado
▁hahaha
*(
▁doritos
▁RI
▁apoiar
▁filmar
▁trust
paguei
▁fizermos
▁multiplica
▁arrependi
▁rolo
▁íris
▁hopefully
▁saldanha
▁💚
▁😴
▁gomas
▁perigoso
▁eats
▁Mario
▁ressonar
▁Adora
▁blessed
▁boss
▁Bio
▁live
▁sorteio
▁Acordada
melia
▁Aaahhh
▁Nenhuma
▁funcionava
VA
▁leão
▁dourad
▁Aaaaaaah
mestre
▁delegate
▁fire
▁esqueceste
▁escreveu
coração
▁completa
▁anis
▁executar
▁provei
ticamente
▁New
246
▁sentiste
▁sooooo
▁Liar
▁Passava
frent
▁dure
▁sobra
william
;1-
▁LI
▁solar
▁Dead
▁reli
idinho
▁voar
▁explícit
irst
▁suppose
▁lua
▁Fly
▁copiar
▁estude
VC
▁acharam
NG
NL
▁conheceste
NK
▁calado
▁queremos
lkr
JN
ESS
▁guiar
aquel
jZ
▁job
PL
▁tfa
hould
yyyyyyy
EZ
▁queixares
queixaste
▁aziad
bullying
▁sabendo
▁canta
jN
▁mudava
▁expon
▁ligaste
▁extremo
▁variar
CW
▁bocad
HT
▁Sext
▁Byeeeee
▁fixr
▁mostrado
▁Bec
▁esqueceu
▁acabasse
▁tq
musk
▁Had
▁responderam
FC
▁bag
ella
▁reta
▁Up
▁saísse
▁bata
▁saberá
alert
▁Pin
▁tuist
▁irritar
▁mexi
úli
▁decidirmos
▁PT
calça
▁tirasse
▁Nooooo
▁Put
▁largar
BF
▁MU
Cur
kR
▁continuarei
▁ligaram
756
precisam
▁mimir
xL
▁banda
▁pano
water
▁Fazia
oooool
▁rara
alls
Lc
Xl
perma
lhar
ITO
▁camara
sistente
............
▁desformata
incluído
▁Meia
Gc
▁Sexo
▁desorganiza
stacionei
▁comiss
▁ced
sters
trial
pingo
comments
▁morder
▁anti
▁mandasse
ssaltada
trof
tha
ffs
oooooow
▁Reza
▁referen
▁atrasa
canela
▁Hora
▁falhar
ZY
▁Baixa
▁respondia
▁pare
TV
▁helloo
cios
aaaamn
▁col
▁paste
gmail
▁retira
▁pessima
▁Dur
▁Simples
▁poderá
xal
▁passiv
▁cumprimentar
▁grind
tirar
▁Mari
▁Daquel
erim
okes
▁text
265
▁sext
▁liso
▁dormisse
1%
oooooooo
NN
▁boyyyyy
▁cita
pace
prestei
▁wi
▁desconta
uagem
▁Liv
kE
ulas
▁prest
MAD
▁Mostro
▁dispost
gueira
!!!!!!!
▁moto
jor
liquei
inner
had
lheira
▁Gasta
669
etty
incidência
bout
▁aperto
885
▁kat
chat
▁busc
ask
▁reagis
▁desencrav
umprimentos
▁yaaa
ife
NX
Bsr
intura
VJ
448
▁recorr
ahhahahaha
correr
▁Ahahahhahaha
tough
▁Mostr
▁reagi
▁corresponder
▁altera
theta
rror
aaaaaaaaaaaaaa
(1/
conquistado
▁hist
▁reformul
611
4%
▁Sureeee
onas
esponsável
nside
aft
▁voltasse
▁Identifica
▁plan
ene
versa
olleen
▁implic
▁9.3
▁descontar
▁consider
▁discuti
▁proporciona
▁selecion
▁abraçad
▁refere
▁Pic
▁Acord
71/
special
▁animado
todd
▁aconselh
▁pessim
crime
▁ajud
aul
▁trabalh
▁exi
unnnn
▁poup
nstalei
intei
▁Tchi
ooooow
store
aile
▁galo
▁superfici
▁perc
25€
eeeeeeeeeeee
sperm
▁Aceita
lmocei
▁Pergunt
▁pô
▁matri
plicado
▁past
▁Aula
tentar
rograma
games
▁almoç
âmi
lheres
▁Beijinho
photo
▁saudade
▁boob
cional
▁Decid
▁bast
cuddl
▁perceb
▁read
▁Suuu
borrece
▁whi
grow
▁compil
ahahah
▁Olaaa
▁pont
verything
pizza
posição
▁demonstra
▁Ahahahahhaha
project
🍑
🧡
ipho
🌙
Casa
💞
calma
world
abril
download
🌟
continente
massagens
well
exp
reunião
sexta
Quero
Podes
estudar
Também
à
massagem
quase
Mesmo
Então
fotografia
okay
ency
muito
link
sinal
carregar
confi
maior
agora
gerir
Como
▁Envi
ional
follow
000€
Isso
▁resson
▁exce
▁caval
assim
life
▁period
job
▁prepara
▁devolv
▁adianta
▁ultrapassa
▁foca
▁verifica
▁aumenta
▁legend
saia
▁ocorr
▁prai
tainable
▁quand
▁custo
▁kind
clara
▁nã
▁desperta
▁candidata
princip
▁explique
niz
▁aguente
▁engane
▁apanhe
▁pormenor
Product
▁relembr
õ
▁propor
▁materia
notif
▁Yeeeeyyy
▁cuida
▁constipa
ística
▁inform
▁desperdiç
lorença
▁discuss
▁constante
▁revis
Point
▁organis
riggered
▁prat
▁than
▁bless
▁assust
▁stalk
fficial
▁ligue
cencia
.10737418
amisola
▁river
anquecas
alavras
ificil
amsung
hotoshop
▁orgulho
obrigatori
▁Inicia
▁chapa
Brooklyn
IwAR
categor
▁prejudi
experienc
_________
▁equival
gggggggggg
🤠
🤤
Papel
▁julg
AAHHHH
wetransfer
▁Arruma
▁Magoaste
▁distribui
▁independent
▁sacrific
▁speech
abeleireira
bloquear
compreensiv
dddddddddddddddd
desinstalar
encripta
ilmour
lvalade
móveis
ngenheira
nunciar
onference
onóculo
ortunately
régua
throwback
usufrui
utocorrect
últipl
▁1/(1+
▁9:39
▁ASSIM
▁Adeeeus
▁Algarve
▁Atraente
▁Attractive
▁Bigode
▁Bruna
▁Bélgica
▁Cachecol
▁Cacém
▁Cláudia
▁Curioso
▁Direction
▁Embarrassi
▁Encrav
▁Excuse
▁Expectável
▁Funcion
▁Grelha
▁Healthy
▁Henrique
▁Hmmmmmmmmmmmmm
▁Hogwarts
▁IPhO
▁Impressed
▁Inscrev
▁Kebab
▁Klein
▁Lourenço
▁Lyrics
▁Língua
▁Matosinhos
▁Música
▁Notícias
▁Obviously
▁Outlander
▁Pormenores
▁President
▁Priori
▁Prioridades
▁Progressos
▁Rebelde
▁Ryanair
▁Shaaame
▁Shrek
▁Shush
▁Sortuda
▁Stooooop
▁Sweat
▁Série
▁Taylor
▁Trouxe
▁adiantei
▁advance
▁afirmação
▁alcunha
▁amigdalite
▁análise
▁aparecido
▁attention
▁averigu
▁babies
▁balança
▁banhar
▁beijava
▁biafine
▁biscoito
▁botins
▁budget
▁buffet
▁buraquinho
▁cachorro
▁caleidoscópio
▁capítulo
▁característic
▁certific
▁choose
▁chrome
▁citizen
▁ciúmes
▁coliseu
▁complicações
▁comportamento
▁compreensível
▁comunhão
▁confortáveis
▁contratempo
▁contínuo
▁convergência
▁croissant
▁cruel
▁cruzadas
▁crítica
▁curioso
▁dalmata
▁degraus
▁descamar
▁desconect
▁descontrola
▁dificeis
▁disappoint
▁discutem
▁disponibili
▁distração
▁divorci
▁domínio
▁dunkirk
▁edifício
▁emagrece
▁encaminha
▁endereço
▁envelope
▁episode
▁escroto
▁especifico
▁específica
▁espontâne
▁estrelinha
▁europeia
▁evaluation
▁evolved
▁exageremos
▁exageres
▁exaltado
▁excitedddd
▁exercitar
▁faculdade
▁feijões
▁feminina
▁fofinha
▁foguetão
▁fígado
▁físico
▁garfo
▁gengiva
▁glitter
▁gémea
▁hamburguer
▁havaiana
▁hurry
▁identidade
▁impermeável
▁impressionar
▁incentivo
▁incompleta
▁incompleto
▁incêndio
▁influencia
▁insistir
▁interrogação
▁interromper
▁introdução
▁jackson
▁judge
▁judging
▁justificar
▁juventude
▁knorr
▁koala
▁lamechas
▁lampugnano
▁laurent
▁lenhador
▁livestream
▁loucura
▁lúcido
▁maravilha
▁marmelada
▁medicina
▁mensalidades
▁meteorologia
▁milagros
▁mistério
▁mobilidade
▁moderadamente
▁monhés
▁montaditos
▁multibanco
▁máxima
▁mútuo
▁nalguma
▁nugget
▁nutella
▁ocasião
▁oferecido
▁outlander
▁panicar
▁pascoa
▁pavilhão
▁penúltim
▁pipoquinha
▁polegar
▁precisão
▁preencher
▁presets
▁princesa
▁prolonga
▁pumped
▁pureza
▁queimadura
▁quinze
▁rebelde
▁recapitula
▁recolha
▁recommend
▁reconheç
▁religiosa
▁rodolfo
▁rolantes
▁romântica
▁saggy
▁satélite
▁secundária
▁sheldon
▁silêncio
▁simular
▁sincroniza
▁socorros
▁sonâmbul
▁squeezy
▁subtrair
▁successful
▁tabaco
▁tambien
▁testosterona
▁tradição
▁transparente
▁trippy
▁tímid
▁título
▁variável
▁wareztuga
▁zangada
▁zayn
▁Óleo
▁íntimo
▁👉👌
⭐
👊
😠
😰
▁Anyway
▁admira
▁alright
▁atencioso
▁atenções
▁campinácios
▁candeeiro
▁comichão
▁convidado
▁deicidi
▁descubr
▁desinfestaç
▁desporto
▁exagerad
▁hidrata
▁hipó
▁interrompid
▁inverno
▁necessar
▁pertence
▁podcast
▁restrict
▁shinn
▁suicido
scooter
scuteiros
áveis
▁17:52
▁75€
▁Before
▁Brinc
▁Crazy
▁Desligo
▁Fernand
▁Instala
▁Lucy
▁Sneak
▁Winning
▁acidental
▁aparente
▁baixinh
▁decisões
▁derrota
▁desrespeita
▁dilema
▁esforce
▁exhaust
▁neuro
▁pulmões
▁rapper
▁remodela
▁retiro
▁roller
▁speechless
▁sénior
▁transformaç
▁typing
▁uterus
▁votações
😜
berdade
protegi
Θ
▁Propz
▁Sortudo
▁boné
▁formulário
▁kiddo
▁lenço
▁panico
OOO
▁Brave
▁Cristo
▁PASS
▁Treina
▁WTF
▁cães
▁desligo
▁embarque
▁experiencia
▁fotografar
▁gritou
▁happi
▁heater
▁indiana
▁jorge
▁ligeiro
▁mommy
▁salvamento
💝
▁Almada
▁GMS
▁Troca
▁convenciona
▁editada
▁ejacul
▁eletrónic
▁flick
▁julgues
▁relações
▁amadora
▁desligada
▁training
beauty
etribui
▁Cinzenta
▁flight
▁gemido
▁persua
▁😍😍😍😍
mebiol
▁Perfeit
▁activ
▁duomo
▁elástico
▁floor
▁input
▁obceca
▁protect
▁renasce
▁selfless
▁sofras
▁sudeste
▁Beeeeem
▁Sevilha
▁company
▁endireitar
▁melodia
▁Choose
▁Mousse
▁bright
▁fantasm
▁handjob
▁moedas
▁sostra
▁Weirddd
▁dedicada
▁depriv
▁fortran
nsulto
▁cortina
student
▁$\
▁boooom
▁oponho
▁Minimeu
▁convite
▁resume
▁💕💕💕
▁rouca
▁sevilha
▁yaaaay
▁aquário
▁desperd
▁essencial
▁nerf
▁percevejo
▁2014
▁espreme
▁tampão
distance
sociais
▁Next
▁environmentally
▁impedi
▁session
▁categoria
▁embrulhar
▁válido
▁caneta
child
=2018-12-02
hift
ortnite
▁divergencia
▁retard
▁gonca
▁Kay
▁Yeeyyy
▁aerotec
▁calçado
taaaanto
/2015
▁Aquece
▁ajusta
▁biologi
▁listen
▁limao
▁teddy
ween
brantes
ndireitadas
arrasar
▁trofa
▁veludo
▁drama
▁vaselina
légio
unfair
▁bagagem
▁Apreci
▁bordo
▁lasef
people
▁Gala
▁ocean
heirinho
=2018-1
▁batedeira
▁escusa
▁hour
▁veado
▁Volto
▁particula
▁perturbador
overth
▁genuin
▁Faltei
▁lidl
▁Naaao
▁deposita
▁Tanta
INHA
▁outono
▁relationship
▁linear
▁aterrar
▁miuda
▁rui
▁intenções
▁scrip
▁orgulhosa
▁pants
qmq
amuel
▁exaust
▁KFC
▁perfecionista
▁regime
▁desenhas
▁apareço
▁assume
▁dirty
▁Neves
▁Halloween
▁painful
governo
▁congelado
▁nevar
▁Coitadinho
▁*21
▁definitivo
▁Caloira
▁Amador
▁August
▁acalmar
culture
▁salient
máx
▁Unlike
▁horario
onvém
3168
▁Nerd
▁circun
▁procure
▁frequentemente
fetish
▁muuuuui
▁narsa
▁demonstrações
▁Resumindo
▁Adiciona
▁Inscrições
▁inevitável
▁almoçava
▁custe
▁gritos
▁confusões
▁runn
▁booty
▁upset
galdana
terapia
▁pêlos
▁pepperoni
▁centimo
▁hook
▁acender
149
▁balões
▁legs
▁salvar
▁graduação
▁orden
▁ctl
4457
▁00:00
▁stand
▁Daniel
idPhone
▁busy
▁understandable
▁Barba
▁Enviado
Daily
urious
▁estreito
▁lister
ecret
▁experience
▁marquei
▁ikr
▁gabar
▁Crl
▁planeadas
9:05
▁hú
▁estragar
atarina
▁Problemas
▁Horrível
▁razo
▁Grita
▁materiais
▁piano
▁inocenci
▁Tesla
clismo
▁💕💕
▁exceção
sharing
9454
▁Molho
▁Garant
▁hold
▁ventoinha
▁father
▁crashar
▁presi
▁ereção
▁tarte
▁28€
▁competição
PROJE
▁Resumo
▁17:00
▁odiar
▁explos
▁bernardino
▁produce
▁madeira
▁common
▁verona
▁Stud
▁intense
▁laranja
agrama
▁florença
▁Noite
8204
▁anime
▁Adios
▁Junta
▁Levanta
▁tratamento
▁seguidos
😘😘😘
âni
▁12:15
▁encant
ILE
▁Arranj
ívia
▁elon
ELE
▁evoo
▁19:30
▁viciad
▁Manel
▁eslováquia
▁iniciai
▁alteração
▁durasse
▁gás
▁Ahahahahha
▁shoot
▁inscrições
▁consum
▁sentei
pareceste
▁assembly
/2035
▁analogi
▁negra
Spain
▁vela
39.9948355
▁desapontar
▁lápis
▁succe
▁dieta
▁9:00
▁falsa
vantagens
▁chateie
ezY
▁safely
reakfast
spot
▁chapada
▁enfiar
▁Dumb
98118
▁Popp
▁decida
▁cargo
ycat
▁slow
NTI
uscul
slandes
▁canja
▁yeeee
▁favorita
▁19.6
▁arder
Pontos
▁Linda
▁imitar
▁pray
▁Siste
▁7:30
▁packed
▁Salva
▁lí
regua
▁chorava
ARS
▁morrendo
▁Nogueira
ginas
▁identificada
transfere
▁interna
artins
▁Yeeeeyyyy
OTA
▁nextE
▁9:15
▁shower
bird
▁oiça
▁10:45
▁correções
▁memori
▁pombo
screver
=51
▁Paco
lisbo
ING
▁lobo
▁apagou
▁compensou
▁identificou
▁trek
▁Pô
▁CHE
▁suave
▁atento
▁papi
▁fô
▁fumo
ERS
sumindo
▁Compara
▁inscrit
▁segura
▁partia
▁kend
▁catá
tlu
917
▁chocado
/125
▁react
▁minimo
▁Riiiii
trac
851
▁Slow
▁10:15
▁Escu
▁yeaaaaa
▁aprovou
+1)
▁política
travess
▁submet
▁exceciona
▁Inten
536
▁inicialmente
folde
▁reparava
ussies
▁Larg
▁watching
▁Perguntaram
propaga
▁guardes
▁SER
▁afetada
▁figured
▁Pago
europa
▁worthy
▁diretamente
ombeiros
▁sê
▁barraca
▁apetecesse
▁tour
▁Morre
▁#2
▁recorde
▁cock
avourite
▁Ganhaste
▁tentando
▁Beijar
mile
quisit
▁contrato
460
▁KI
▁apple
▁surf
▁playing
▁eyes
▁Esperando
▁trouxeram
▁panda
▁deep
▁arro
chris
▁né
ína
▁soja
projet
▁Mean
▁vasc
▁beeeeee
APE
▁idc
▁solve
compatíveis
nymo
▁Chees
▁Jkkkk
production
▁encostado
▁sbe
6.2
isney
guts
itter
▁Need
▁hola
▁Bota
issiona
▁lisa
438
▁Tmi
cidos
▁notice
▁saaaaaa
▁atrevid
▁nele
▁ginecologi
APP
▁Opaaaaaaaaa
▁Bran
drenaline
▁Alapa
▁Tirava
▁Soooo
▁Pouc
▁temporári
▁instalado
aniel
1/0
▁acordasse
▁Ahhahaha
▁Fare
istur
▁atualiza
aining
profess
▁cardi
nâm
certo
ÇA
▁omggggg
helpful
▁vag
paixonei
▁produz
▁operaç
cionário
lula
5000€
▁conhecesse
market
▁Tru
▁shape
▁Venez
▁Ahahahahhahahah
order
▁luta
▁bebid
broke
▁trabalhador
masala
▁audi
5927
ecido
▁mutua
▁Cry
masturbating
awakens
iveis
owser
hhhhhhhhhhhhhh
▁Escrevi
passe
risco
joao
REI
ravi
arques
avaliar
miga
ódi
▁estrague
NOT
▁Resto
▁Definit
▁conseguisse
instalei
▁funnn
EVE
errament
ewsletter
▁Aprovad
crop
▁italian
1391
NTE
abel
ICA
▁identifique
marco
Chef
provei
▁matur
rrete
▁abraça
serie
▁Luckyy
▁1.9
vegetariano
328
▁emocionad
▁calmo
proporcional
urpreendente
ctic
4901
9€
1#
ritos
▁questionar
▁wan
▁particip
379
▁barb
▁Colle
▁distraí
carreg
▁subti
▁valoriz
▁superficial
896
eeeeeeeee
nimadora
paço
Best
704
▁Claaaaa
chine
unidade
▁respir
uís
8.1
▁stressad
▁Whyyyy
523
▁separad
214
▁acelera
▁19:4
▁realizad
femis
pagaste
imate
Reg
terações
ebol
▁Ahahhah
▁assalt
guentavas
▁adicion
716
azie
ficialmente
▁Frank
▁comple
▁Cere
▁Compr
ntrada
▁cumprimenta
▁vivi
▁Escrev
▁Sobreviv
atend
▁Trat
▁estud
▁Aprov
▁relativ
▁estacion
▁secç
▁Baix
▁compreend
▁Apaga
érica
nner
▁result
érico
▁Fil
puls
▁Aprendi
possive
▁america
ncluído
▁wrap
725
▁insegura
▁envolv
gosto
parece
plicar
plicação
prender
erados
delega
▁Ignor
urso
ification
verage
descontos
rraial
mazing
lameda
Ç
▁adormeça
▁alergia
▁emblema
▁kebab
▁lyric
▁capacidade
▁brinque
▁squat
▁lágrima
▁sobrancelha
▁notícia
▁concorre
letter
▁Emprest
ório
lassic
▁publi
plícita
▁alarm
posed
▁9.5
ffline
▁dividi
http
ending
▁agressiva
▁atrev
▁origin
▁Associa
stúpida
▁alimenta
ngraçada
camara
😘
✋
blessed
hopefully
perigoso
💚
😴
históri
saldanha
íris
access
buddy
drink
organiser
café
Team
areeiro
roviso
sabado
interior
😥
shopping
receita
mulher
continue
acidente
messenger
bicicleta
white
puseste
yourself
tirado
tornar
course
preferia
place
guardo
Update
potter
emoji
nacht
grave
frango
namorada
câmara
chuva
afonso
decidi
Verdade
pergunta
vestir
criar
chegou
família
Yep
😊
talvez
À
pronto
Gonçalo
pôr
segunda
Amanhã
though
Fuck
Gosto
coisas
escolha
harry
dizer
Estou
depois
Está
vlogs
Essa
hhahahahahahah
livro
comigo
gostas
ãaaaaaao
Para
▁Naaaaaaah
luis
ecisions
Menorca
Passei
ography
▁promis
know
▁Imagin
▁exempl
/2010
filtra
lemanha
traída
previ
▁garanti
public
▁favour
mitiu
▁diverti
tembro
ónico
▁espaç
▁independen
whats
▁reclama
▁també
▁necessári
▁insulta
▁fingi
▁renova
▁arrepende
▁impressionad
▁tranquil
▁desmaia
Byee
▁yeaa
▁sessã
▁estragad
▁pleas
crita
▁Faç
▁católic
▁produtiv
▁identifico
▁compenso
▁barrig
▁privad
Comp
▁AHAHAHHAHA
▁apago
▁destin
▁gilet
DisplayedPrice
tomia
▁livr
▁desligue
▁apague
▁repare
correu
▁assembl
▁baguet
2018-10-07
▁incrive
▁omggggggggggggg
▁regista
MXP
▁almoc
anguage
▁driv
▁PRO
25.0
▁crash
ntervalo
nveja
mpossível
ntegral
▁especifica
ábrica
inuar
▁teóric
Origin
nicialmente
fotograf
ongrats
coberto
ltrapassa
ewi
7353
▁$$
pgrade
erveja
▁gradua
rianças
epperoni
▁sarcas
enuron
inheiro
omething
▁19:3
▁Admi
-1853845
657906
ighlight
elemóvel
acacão
congela
medica
alloween
chila
entira
anteiga
urpresa
elationship
document
▁flui
móvel
▁support
ycling
ictoria
egistado
ápido
▁perigo
aselina
▁oportun
igeiramente
sports
desfocad
▁Basic
147808
42.2
Monthly
mbrulha
amburg
vergencia
-70-300
▁environment
▁soluç
▁underst
▁Anima
-2019/
02145
4-5-6-
49467
59024
Tablet
awareness
telemoveis
5678
utoridade
▁Yeaah
Ú
▁converge
Number
🤩
lgada
aaaaaaahhhhhhh
▁Estrag
Â
Ô
▁Nononono
▁preguiç
hahhahhahaha
▁AbsTol
▁Contrata
▁RelTol
▁aplicada
▁straight
132754
chieve
incidir
strangeiro
struí
▁2013/2014
▁Descreve
▁Oferece
▁Poooooiiiis
▁Ridiculo
▁Subestimas
▁consecutiv
▁desabaf
▁desentupiu
▁desleixar
▁direitinh
▁discret
▁folheto
▁tropeça
▁óbvias
(-1,2,5)
+1:]
/02/2018
217468
53390
5637
7692
=10156
CeU
DADE
EEEEEEEEEEE
George
HAHAHAHAHAHAH
HUuJ
JKJK
OUGH
amndamndamn
ardashian
cadémico
crambled
dAzDCrdN
eehhhh
encaminhei
esthetically
ferecida
findPerson
hahahahahhaha
hexágonos
horóscop
iabbeauty
instantaneamente
intermission
lmondega
luorescente
marrakesh
merdosos
nnoyed
ografia
olômbia
onflitos
pologise
price
raposo
risbee
spairecer
sssssssssss
subscribe
tribuído
ufflepuff
ustificável
uwait
»
è
ógico
φ
—
‘
”
√
∞
▁2+2=4
▁3700€
▁ADOREI
▁AGORA
▁Abriram
▁Acertei
▁Aguarda
▁Ahaahahaha
▁Ahahaahahah
▁Almôndegas
▁Amsterd
▁Answer
▁Araújo
▁Atrevida
▁Atualiz
▁Bolonhesa
▁CERTO
▁CVoo
▁Cansaço
▁Chocolate
▁Churrasco
▁Claire
▁Conceptual
▁Confiança
▁Conquista
▁Cookie
▁Cuidado
▁Código
▁DORMIR
▁Daaaaaaamn
▁Descrição
▁Desenvolve
▁Dezembro
▁Discussão
▁Dunkirk
▁Eduarda
▁Eslováquia
▁Esprenu
▁Estrogido
▁Explain
▁Feijões
▁Figures
▁Filetes
▁Fluidos
▁Fábio
▁Fórmula
▁Galveias
▁General
▁Grammar
▁Hambúrguer
▁Honest
▁Inglês
▁Londres
▁MARIA
▁Maiorca
▁Matilde
▁Maçã
▁Memória
▁Médio
▁Nervous
▁Netflix
▁Nãaaaaaaao
▁Nãaaao
▁Período
▁Pijama
▁Polaroid
▁Portuguesa
▁Preservativos
▁Próximo
▁Puorto
▁QUERID
▁Sampaio
▁Sapadores
▁Sheldon
▁Spotify
▁Stupid
▁Substitui
▁Sugestão
▁Swift
▁Tenciono
▁Toalhitas
▁Trivial
▁Tulicreme
▁Weeeeird
▁Whaaat
▁YEAH
▁YESSS
▁Yeeeeeyyy
▁Zelândia
▁Zuckerberg
▁accomplished
▁account
▁acoustichood
▁admitir
▁adoentado
▁advogado
▁affff
▁alcool
▁alcoólica
▁aldrabado
▁alternativo
▁anakin
▁answer
▁apaixonada
▁aplicava
▁apresentável
▁arrefece
▁artificial
▁assediada
▁assistir
▁astronauta
▁atribuídas
▁attached
▁auriculares
▁autocolante
▁autoestima
▁autografa
▁autorização
▁axilas
▁balanço
▁bisavó
▁borbulhinha
▁bovisa
▁brainwash
▁brasileiro
▁bárbara
▁campismo
▁cerveza
▁chewbacca
▁chupões
▁cinética
▁circunstâncias
▁ciumenta
▁civis
▁clandestin
▁clássica
▁coimbra
▁colegio
▁complicated
▁conexão
▁conforto
▁conhecíamos
▁continuidades
▁contribui
▁contínua
▁converter
▁cortisol
▁coágulo
▁credível
▁criptografia
▁crochet
▁cruáçã
▁curtinho
▁cêntimos
▁deficiente
▁deformada
▁descarrila
▁desconhecido
▁desentupir
▁desleixad
▁desprezo
▁dispositivo
▁distrações
▁divergir
▁dobrik
▁easyjet
▁edgeplay
▁effect
▁egoísta
▁elétrico
▁emagreci
▁embaraçosa
▁embaraçoso
▁encharcad
▁engordei
▁engravidou
▁enquadramento
▁ereader
▁escrevo
▁espermatozóides
▁espinafres
▁estrogido
▁estrutura
▁europeu
▁evacua
▁exclusivo
▁excuse
▁expulso
▁extenso
▁fantastic
▁fertilized
▁flexibilidade
▁fotógrafa
▁fotógrafo
▁fraqueza
▁fraquinho
▁frequência
▁fêmea
▁garanto
▁genética
▁gradient
▁grandinha
▁grindelwald
▁guitarra
▁génova
▁helicóptero
▁hidromel
▁hogwarts
▁implementar
▁incomodo
▁incredibl
▁indireta
▁inexistentes
▁infinito
▁informática
▁intimida
▁invertida
▁isolada
▁jellybeans
▁jesuita
▁justificação
▁keyboard
▁kiddiiiiing
▁knoooow
▁lanyards
▁lençóis
▁limitações
▁lisboeta
▁mainstream
▁matosinhos
▁matrícula
▁mañana
▁middle
▁migalhas
☀
♀
い
す
ま
🇮
🌋
💃
🖤
😅
😕
😚
😤
😻
🙇
🤘
🤞
🦄
し
て
愛
💜
😏
😢
❄
😳
👌
😔
🙏
💛
👋
♥
👅
🤪
🧐
🤓
🤥
🤬
🤯
È
π
‿
↼
♂
⚡
✌
✝
⬆
🇨
🇫
🇳
🇷
🇸
🇺
🌈
🌪
🌶
🍋
🍠
🍼
🎃
🎈
🎤
🏛
🏳
🏻
🐓
🐔
🐥
🐧
🐰
🐱
🐶
🐿
👂
👈
👣
👨
👩
👴
👻
👽
💂
💌
💤
💸
🔝
🔫
🖐
😃
😈
😦
😮
😯
😱
😵
😾
🙀
🙋
🙌
🚀
🚼
🛀
🛌
🛰
🛸
🤛
🤢
🤭
🤮
🤷
🥰
🥳
🦃
🦔
🧘
🧠
☄
🎨
🥢
🤗
🙄
🙂
😲
😐
🖕
💫
💧
💁
🎉
肉
牛
匂
る
の
が
«
😿
👶
🐮
🇵
“
ñ
😋
😇
🍌
🤣
😫
😁
👎
🇪
🇩
Í
😣
🍆
🤔
🔥
👉
😑
💪
👍
́
☺
Ã
🌊
💔
👏
😉
◡
😒
😟
😭
😂
😞
̄
